const unsigned char model[] = {
  0x1c, 0x00, 0x00, 0x00, 0x54, 0x46, 0x4c, 0x33, 0x00, 0x00, 0x12, 0x00,
  0x1c, 0x00, 0x04, 0x00, 0x08, 0x00, 0x0c, 0x00, 0x10, 0x00, 0x14, 0x00,
  0x00, 0x00, 0x18, 0x00, 0x12, 0x00, 0x00, 0x00, 0x03, 0x00, 0x00, 0x00,
  0xa8, 0x24, 0x00, 0x00, 0xb4, 0x1c, 0x00, 0x00, 0x9c, 0x1c, 0x00, 0x00,
  0x3c, 0x00, 0x00, 0x00, 0x04, 0x00, 0x00, 0x00, 0x01, 0x00, 0x00, 0x00,
  0x0c, 0x00, 0x00, 0x00, 0x08, 0x00, 0x0c, 0x00, 0x04, 0x00, 0x08, 0x00,
  0x08, 0x00, 0x00, 0x00, 0x08, 0x00, 0x00, 0x00, 0x0c, 0x00, 0x00, 0x00,
  0x13, 0x00, 0x00, 0x00, 0x6d, 0x69, 0x6e, 0x5f, 0x72, 0x75, 0x6e, 0x74,
  0x69, 0x6d, 0x65, 0x5f, 0x76, 0x65, 0x72, 0x73, 0x69, 0x6f, 0x6e, 0x00,
  0x0d, 0x00, 0x00, 0x00, 0x54, 0x1c, 0x00, 0x00, 0x34, 0x1c, 0x00, 0x00,
  0xe8, 0x1b, 0x00, 0x00, 0x9c, 0x1b, 0x00, 0x00, 0xc4, 0x1a, 0x00, 0x00,
  0xbc, 0x1a, 0x00, 0x00, 0x3c, 0x03, 0x00, 0x00, 0x34, 0x03, 0x00, 0x00,
  0x2c, 0x03, 0x00, 0x00, 0x24, 0x03, 0x00, 0x00, 0x24, 0x00, 0x00, 0x00,
  0x1c, 0x00, 0x00, 0x00, 0x04, 0x00, 0x00, 0x00, 0x46, 0xe3, 0xff, 0xff,
  0x04, 0x00, 0x00, 0x00, 0x05, 0x00, 0x00, 0x00, 0x31, 0x2e, 0x35, 0x2e,
  0x30, 0x00, 0x00, 0x00, 0x28, 0xe3, 0xff, 0xff, 0x5e, 0xe3, 0xff, 0xff,
  0x04, 0x00, 0x00, 0x00, 0xee, 0x02, 0x00, 0x00, 0x28, 0x53, 0xf4, 0xd0,
  0x0a, 0xd1, 0x0b, 0x28, 0x13, 0xf2, 0xb5, 0xf2, 0xf4, 0xb7, 0x06, 0xea,
  0x02, 0x1d, 0xe8, 0xf7, 0xf8, 0xc9, 0x04, 0xc5, 0xe5, 0x05, 0xf0, 0xde,
  0x1b, 0xd3, 0xec, 0x30, 0x4d, 0xc1, 0xf7, 0x17, 0xe8, 0x0c, 0xe4, 0x37,
  0xe0, 0xc4, 0x08, 0xd9, 0xc5, 0x1e, 0xce, 0xc6, 0xe0, 0xfa, 0xf4, 0x24,
  0x21, 0xe1, 0x4c, 0x03, 0x06, 0xef, 0x22, 0xeb, 0x3d, 0x47, 0xf2, 0x14,
  0xee, 0xe0, 0xc9, 0xf3, 0xc3, 0x19, 0x24, 0x2f, 0x0a, 0x3c, 0x23, 0xdf,
  0x38, 0x01, 0x9f, 0x0c, 0x2b, 0x4c, 0x09, 0x12, 0xb5, 0x98, 0xfb, 0xf7,
  0xa2, 0x0d, 0x07, 0x53, 0x18, 0x09, 0x0d, 0x11, 0xf4, 0xfe, 0x26, 0xd6,
  0xc8, 0x07, 0xd4, 0x45, 0xc9, 0xf2, 0x0e, 0xdc, 0xd0, 0xca, 0x46, 0xcf,
  0xeb, 0x44, 0x19, 0x4b, 0x05, 0x27, 0x10, 0x50, 0x30, 0xfb, 0x1d, 0xe7,
  0x0e, 0xe5, 0xf5, 0x59, 0x7f, 0xcc, 0x7a, 0x60, 0x63, 0xee, 0xdc, 0xc8,
  0x01, 0xd2, 0x55, 0x1b, 0xf9, 0x25, 0xbd, 0xd3, 0x2a, 0xf4, 0xde, 0x3b,
  0xd4, 0x2c, 0x20, 0xd7, 0x09, 0x08, 0xc8, 0xf4, 0x03, 0x08, 0xc2, 0xc5,
  0x26, 0xf6, 0xc8, 0xcb, 0x40, 0xda, 0x1d, 0x13, 0x3a, 0xe8, 0xb7, 0xf1,
  0xf4, 0xef, 0x30, 0x0e, 0xf6, 0x35, 0xc8, 0xf3, 0x14, 0x0f, 0xce, 0xd4,
  0xfa, 0xc5, 0xb9, 0xcb, 0xed, 0x15, 0x32, 0x38, 0x1c, 0xfd, 0x03, 0x0a,
  0x0f, 0x0a, 0xfc, 0xe2, 0x0d, 0x61, 0xad, 0x2c, 0x34, 0x2a, 0x2c, 0xde,
  0x25, 0xb2, 0x1a, 0x37, 0xbc, 0x33, 0xd2, 0xeb, 0x44, 0xd7, 0x35, 0xcb,
  0xff, 0xab, 0x42, 0x2e, 0xf7, 0xff, 0x66, 0xdf, 0x55, 0xfa, 0x38, 0xf7,
  0x58, 0xcd, 0x04, 0x0d, 0xbf, 0xe8, 0x4f, 0xc7, 0xdc, 0xd3, 0x7b, 0xf6,
  0x67, 0xe2, 0x1c, 0x9f, 0x23, 0x30, 0x4f, 0x10, 0x3b, 0x07, 0x1d, 0xe7,
  0xeb, 0x1c, 0x10, 0x41, 0x08, 0xc2, 0x18, 0xd6, 0x1d, 0x34, 0x38, 0x5e,
  0x2a, 0x35, 0x0a, 0x28, 0xac, 0xec, 0xe0, 0xe4, 0xd9, 0x1a, 0xfa, 0x12,
  0xff, 0x22, 0xda, 0x10, 0x34, 0x2e, 0x05, 0xd7, 0xea, 0xc7, 0xf2, 0x22,
  0x00, 0x39, 0xfa, 0xc2, 0x1e, 0x56, 0x6a, 0x0b, 0xf6, 0xea, 0xe8, 0xdf,
  0x9e, 0xf1, 0xe5, 0xe3, 0x1e, 0x3c, 0x59, 0x15, 0xe2, 0xea, 0x11, 0x10,
  0xd3, 0x3b, 0x59, 0xe8, 0xce, 0xb2, 0x19, 0xc9, 0x0d, 0x11, 0x21, 0xf0,
  0x33, 0x04, 0xb1, 0xef, 0xc2, 0xf6, 0xdd, 0xf2, 0xdb, 0x01, 0x4f, 0x22,
  0xfe, 0xf7, 0xf6, 0x03, 0x50, 0x08, 0xf4, 0x23, 0xf1, 0x29, 0xf0, 0xf0,
  0xe9, 0xe6, 0xaf, 0xcf, 0x1e, 0x2b, 0x04, 0xdd, 0x25, 0xdd, 0x1e, 0xeb,
  0xd5, 0xec, 0x1b, 0xc0, 0x23, 0x05, 0x61, 0x02, 0x2a, 0x65, 0x7b, 0xfa,
  0xeb, 0xe6, 0x09, 0x26, 0x2f, 0x1e, 0x04, 0x36, 0x29, 0xc3, 0xd8, 0xfb,
  0x05, 0x0a, 0x1c, 0x37, 0xe6, 0x52, 0xbe, 0x26, 0x68, 0xbb, 0x11, 0x26,
  0x28, 0x3e, 0xfd, 0x48, 0x06, 0x12, 0xd8, 0x12, 0x31, 0x1a, 0x2a, 0x30,
  0x2a, 0x0d, 0x42, 0xdf, 0x10, 0x41, 0x0f, 0x02, 0xcd, 0xd5, 0xfa, 0xec,
  0x28, 0xce, 0x1a, 0x09, 0xd3, 0x00, 0xd8, 0x2e, 0xfe, 0x05, 0xd4, 0xe6,
  0x61, 0xd3, 0xde, 0xf0, 0x25, 0xca, 0x4c, 0xba, 0xdf, 0x14, 0x26, 0x31,
  0x12, 0xe7, 0xde, 0x22, 0x1c, 0x37, 0xff, 0xb5, 0x13, 0xd3, 0xd6, 0x4d,
  0x43, 0xf5, 0x63, 0x1a, 0x1c, 0xff, 0x14, 0x15, 0x1d, 0x51, 0x01, 0x16,
  0xe3, 0x19, 0xcf, 0x09, 0x0d, 0xfe, 0xf8, 0x38, 0xb6, 0xec, 0xfb, 0x1a,
  0x50, 0x1f, 0x05, 0x12, 0xc3, 0xfc, 0xdf, 0xf9, 0xca, 0xda, 0xf3, 0x19,
  0x0f, 0x61, 0x46, 0x05, 0x20, 0xd0, 0xee, 0xca, 0xe7, 0x1e, 0xe7, 0x46,
  0xb1, 0x2c, 0x0d, 0xc1, 0x2c, 0xc5, 0xe5, 0xb2, 0xe3, 0x3c, 0x1c, 0x4f,
  0x3c, 0x44, 0x1b, 0xeb, 0x3a, 0x1b, 0xb0, 0x29, 0x0d, 0x37, 0xc3, 0x15,
  0xd1, 0x6b, 0x3f, 0x1e, 0xc7, 0x0e, 0x08, 0xd0, 0x30, 0xfb, 0x07, 0x2b,
  0xae, 0x47, 0x27, 0xeb, 0x42, 0xdf, 0x10, 0xdb, 0xdb, 0x46, 0xf7, 0xff,
  0xdf, 0xdd, 0xe3, 0xdd, 0xe2, 0xdb, 0x16, 0xd9, 0xfe, 0xee, 0xfa, 0x2d,
  0xe6, 0x34, 0xfa, 0xda, 0xfb, 0xf9, 0xe3, 0xea, 0xe8, 0xfd, 0xec, 0xf7,
  0x1b, 0x01, 0x1a, 0xe3, 0xcd, 0x0e, 0xfc, 0x0d, 0xc8, 0xc8, 0xee, 0x18,
  0xe4, 0xde, 0x19, 0x05, 0x0e, 0xcc, 0xff, 0xed, 0xd6, 0x20, 0x15, 0xf2,
  0x27, 0xcc, 0x00, 0x3e, 0x29, 0xa6, 0x49, 0x09, 0x98, 0xf8, 0xfb, 0x1b,
  0x1d, 0x0f, 0xc7, 0xba, 0x6c, 0x29, 0x7e, 0xfc, 0x39, 0x2f, 0x0c, 0x02,
  0x15, 0x10, 0xfe, 0x14, 0x38, 0x1d, 0x13, 0xb2, 0x20, 0x02, 0x0a, 0x0b,
  0x00, 0xcb, 0x28, 0x36, 0xfc, 0x02, 0xcf, 0x09, 0x03, 0xfe, 0x46, 0x15,
  0x1d, 0xf2, 0x06, 0x18, 0xf3, 0x00, 0xee, 0xc6, 0xbb, 0xc9, 0x19, 0x0e,
  0xdd, 0x3f, 0xf1, 0x46, 0x07, 0x15, 0xe5, 0x2d, 0xc4, 0x30, 0x10, 0x1e,
  0x19, 0x13, 0xe0, 0x1e, 0xf6, 0xcf, 0xdc, 0x42, 0xd2, 0xe9, 0xe6, 0xf2,
  0xba, 0xed, 0xef, 0x13, 0xe7, 0x17, 0x0a, 0xfd, 0x27, 0xce, 0xef, 0xe5,
  0x1e, 0x05, 0xe3, 0xe3, 0xd3, 0xea, 0xd6, 0xe5, 0x01, 0xde, 0xdc, 0x2d,
  0x3c, 0xd8, 0x2d, 0xd9, 0x11, 0xe7, 0xfa, 0xd7, 0xf1, 0xcb, 0x44, 0x0b,
  0x12, 0x09, 0xc7, 0x21, 0x2e, 0x24, 0xe2, 0xd9, 0xee, 0x17, 0xf4, 0x1f,
  0x0e, 0xdc, 0x08, 0xdd, 0xd4, 0xbe, 0xfc, 0x0e, 0xec, 0x24, 0x10, 0xf4,
  0xd8, 0x16, 0x00, 0x00, 0x28, 0xe6, 0xff, 0xff, 0x2c, 0xe6, 0xff, 0xff,
  0x30, 0xe6, 0xff, 0xff, 0x66, 0xe6, 0xff, 0xff, 0x04, 0x00, 0x00, 0x00,
  0x70, 0x17, 0x00, 0x00, 0x18, 0xe9, 0x63, 0x0b, 0xd4, 0xfe, 0xc1, 0xe5,
  0x15, 0xbf, 0x23, 0x29, 0xdc, 0xe7, 0xff, 0x0b, 0x17, 0xf3, 0xe3, 0x20,
  0x2e, 0x17, 0x1c, 0x3a, 0xf5, 0xf8, 0x1b, 0x1b, 0xe1, 0x08, 0x1b, 0xf7,
  0xf9, 0xe5, 0xeb, 0x0c, 0x19, 0x18, 0x41, 0xe5, 0x1e, 0xf8, 0x11, 0xec,
  0x21, 0x0d, 0xc4, 0xd0, 0x36, 0x38, 0x1d, 0xef, 0x20, 0xbe, 0x00, 0xe5,
  0xdd, 0xff, 0xde, 0x07, 0xca, 0x24, 0xe0, 0xe2, 0xe2, 0xf7, 0x29, 0xeb,
  0xca, 0x16, 0xff, 0x0d, 0x2c, 0x17, 0x14, 0x10, 0x0d, 0x1d, 0x10, 0xf5,
  0x13, 0xf9, 0x1a, 0x00, 0xa7, 0x07, 0xef, 0x13, 0x0e, 0x04, 0x00, 0x12,
  0x11, 0x0e, 0x0e, 0x01, 0xc6, 0x30, 0x10, 0x11, 0xf1, 0x25, 0xc3, 0x44,
  0x0a, 0x09, 0xe8, 0x13, 0xcc, 0x0f, 0x09, 0xb9, 0xe8, 0x09, 0xb9, 0x01,
  0xff, 0xf8, 0x01, 0x05, 0xac, 0x19, 0x63, 0x96, 0x27, 0xe6, 0xf9, 0x04,
  0x5d, 0xdc, 0x01, 0x10, 0xf1, 0xfc, 0x0b, 0x2f, 0x13, 0xf2, 0x4c, 0x4e,
  0x17, 0x27, 0xe5, 0x4e, 0x2c, 0xfa, 0x16, 0x1b, 0x4c, 0x17, 0x21, 0xeb,
  0x2d, 0x22, 0xfa, 0xfd, 0x1d, 0xf4, 0xe9, 0x05, 0x20, 0xf6, 0xe6, 0xef,
  0x01, 0x24, 0x17, 0x0e, 0x07, 0xc8, 0xfb, 0xea, 0x34, 0x04, 0xf9, 0x39,
  0xf5, 0xc9, 0x23, 0x03, 0xf2, 0xf4, 0xf9, 0x0e, 0xfe, 0x38, 0xdf, 0x23,
  0xb9, 0x01, 0x02, 0x34, 0x03, 0xb9, 0x0d, 0xfa, 0xfd, 0xed, 0xd5, 0x07,
  0x37, 0x44, 0x06, 0x14, 0xf9, 0xfa, 0xeb, 0xef, 0x1c, 0xf7, 0x17, 0x04,
  0xf9, 0x46, 0xec, 0xf8, 0xe3, 0xf8, 0x00, 0xfa, 0x05, 0x2a, 0x06, 0x07,
  0x2a, 0x21, 0x1a, 0x41, 0x0d, 0x2e, 0x20, 0x28, 0x1c, 0x33, 0x22, 0xf4,
  0xfb, 0x05, 0xd3, 0x0f, 0x2f, 0xf4, 0x00, 0xcd, 0xe4, 0x07, 0xf7, 0x35,
  0xf8, 0xfc, 0xf1, 0x2d, 0x29, 0x03, 0xf6, 0x16, 0xf8, 0x44, 0xf1, 0xf7,
  0x35, 0x36, 0xac, 0xf2, 0xe5, 0xef, 0xc8, 0x5b, 0xe5, 0xec, 0x0f, 0xea,
  0x1e, 0xdf, 0x0b, 0xef, 0x13, 0xef, 0xd6, 0x34, 0xf5, 0xd7, 0x0f, 0xe9,
  0xd0, 0x2b, 0xfb, 0xbf, 0xf4, 0xd7, 0x2d, 0xd4, 0x16, 0xf0, 0xcd, 0x16,
  0x1c, 0x09, 0xf4, 0x26, 0x39, 0x01, 0x11, 0xd5, 0x08, 0x2e, 0xcc, 0x0f,
  0x19, 0x09, 0xe3, 0x00, 0xbe, 0x40, 0x0d, 0x16, 0x03, 0x2e, 0xe9, 0xf3,
  0x01, 0x50, 0xff, 0x3b, 0x13, 0xc4, 0xe4, 0xfa, 0x20, 0x4a, 0x0b, 0xcf,
  0x0d, 0x03, 0x11, 0xe0, 0xfb, 0xf8, 0xf1, 0xf9, 0xeb, 0xd3, 0x1f, 0xc4,
  0xe4, 0xfa, 0xe8, 0x10, 0xe3, 0x49, 0x26, 0xf9, 0xe5, 0x17, 0xd5, 0x2a,
  0x00, 0x2d, 0xe6, 0xe1, 0xaf, 0x2a, 0xc3, 0xd6, 0x55, 0x10, 0xa7, 0x2e,
  0x16, 0xe3, 0x1c, 0xf7, 0xcd, 0x22, 0x15, 0x31, 0x0b, 0x20, 0xfb, 0x59,
  0x23, 0x2b, 0x4e, 0x11, 0xbb, 0x42, 0x02, 0xce, 0x01, 0x12, 0x20, 0xc6,
  0x2b, 0x06, 0xf4, 0x05, 0xf1, 0x06, 0x02, 0x05, 0xdf, 0x37, 0x10, 0x11,
  0xba, 0x0a, 0x45, 0xee, 0x21, 0x33, 0xf9, 0x3f, 0x2b, 0x25, 0xd4, 0x40,
  0x25, 0xe1, 0xea, 0x34, 0x18, 0xe2, 0x16, 0x43, 0x08, 0x26, 0x10, 0x3c,
  0xf4, 0x16, 0x33, 0xeb, 0xe9, 0x03, 0xde, 0x24, 0x2b, 0x04, 0xc5, 0xfe,
  0xfc, 0x13, 0xe5, 0xdd, 0xe8, 0xf5, 0x16, 0x04, 0x44, 0xf6, 0xd7, 0xf1,
  0x0e, 0x14, 0x2a, 0x0c, 0x1f, 0xc2, 0xf3, 0xf7, 0xf4, 0x37, 0xfe, 0x0e,
  0x12, 0x2b, 0x01, 0x10, 0xfd, 0xfb, 0xd5, 0xf0, 0xf8, 0xd0, 0xc3, 0x1a,
  0x2c, 0x14, 0xfc, 0xde, 0xe2, 0xf8, 0x65, 0x0f, 0xd9, 0x31, 0xe7, 0xf3,
  0x32, 0xee, 0xd2, 0x2d, 0xf5, 0xea, 0x40, 0x45, 0x23, 0x2f, 0xfa, 0x44,
  0x56, 0xcb, 0xfb, 0x21, 0x37, 0xfe, 0x29, 0x07, 0xec, 0xd2, 0xef, 0xfa,
  0x15, 0x2e, 0xd2, 0xf4, 0x45, 0xdf, 0x5a, 0xec, 0x10, 0xda, 0x27, 0xce,
  0x22, 0x25, 0xe1, 0x0a, 0xf2, 0x3d, 0xf3, 0x55, 0x36, 0xff, 0x5f, 0xf9,
  0xf2, 0x03, 0x15, 0xda, 0x19, 0xf0, 0x03, 0x41, 0x16, 0xd8, 0x08, 0xfc,
  0x07, 0x4b, 0x48, 0x22, 0x36, 0x3e, 0x07, 0xe4, 0x26, 0xde, 0x57, 0xf4,
  0x0b, 0xc9, 0x14, 0x38, 0x04, 0x25, 0x25, 0xd0, 0xdc, 0xff, 0xeb, 0xd6,
  0x0f, 0x3e, 0xf2, 0x19, 0xe2, 0xdf, 0x28, 0xfb, 0xe7, 0x27, 0x18, 0xd7,
  0x30, 0x06, 0x03, 0xca, 0x35, 0xe1, 0x17, 0x07, 0x42, 0xdd, 0x19, 0xf3,
  0xe5, 0xf6, 0xf4, 0xea, 0x15, 0xfe, 0x2f, 0xff, 0xf6, 0x17, 0xc5, 0x1f,
  0x3f, 0xe8, 0x18, 0x07, 0x09, 0x17, 0x13, 0xe8, 0xef, 0xd8, 0x27, 0xd4,
  0x06, 0xdf, 0x28, 0xf6, 0x14, 0xda, 0x07, 0xd9, 0xfa, 0x0e, 0x24, 0xdf,
  0x41, 0xf3, 0xc8, 0x04, 0x15, 0xfc, 0x15, 0x08, 0xdd, 0x0d, 0xf5, 0x16,
  0xfc, 0x34, 0xea, 0xb8, 0x14, 0xfd, 0x44, 0xe6, 0x4a, 0xe0, 0xf1, 0x29,
  0x22, 0x33, 0xe9, 0x2c, 0x0f, 0x26, 0xeb, 0xe0, 0xf2, 0x11, 0x20, 0xf7,
  0xec, 0xf3, 0xf9, 0xf2, 0xf8, 0xe0, 0x29, 0xe4, 0xd7, 0xfd, 0x07, 0xe8,
  0x18, 0x1f, 0xf2, 0xf7, 0xc4, 0x25, 0x12, 0xf2, 0x2b, 0x34, 0x08, 0xfa,
  0xdc, 0x0d, 0x22, 0x02, 0xb2, 0xdc, 0x08, 0x1a, 0x02, 0xe1, 0xf2, 0xfa,
  0xc9, 0x04, 0xe0, 0xfa, 0xd0, 0xb7, 0xdf, 0xe3, 0xf2, 0x11, 0xec, 0x06,
  0xe0, 0xe2, 0x2e, 0x02, 0xdb, 0x19, 0xf8, 0x1f, 0x31, 0x01, 0x0b, 0x1a,
  0x0a, 0xf4, 0x0b, 0x30, 0xfe, 0x0f, 0xe7, 0x1e, 0x05, 0x0d, 0xf7, 0xf1,
  0xc8, 0x28, 0xc9, 0x3a, 0x22, 0x25, 0x0e, 0xf7, 0xc9, 0x1f, 0xfd, 0xd6,
  0xfb, 0xec, 0xfb, 0xd8, 0xe4, 0xff, 0xed, 0xe7, 0x36, 0xdd, 0x07, 0xf8,
  0xf4, 0xe5, 0xef, 0x3c, 0xd1, 0xee, 0xd8, 0x20, 0xea, 0xf0, 0x1f, 0xf7,
  0xc6, 0x2b, 0x15, 0x13, 0xf4, 0x0e, 0xc4, 0xdd, 0xc5, 0xdc, 0x17, 0x10,
  0xdc, 0xf9, 0x15, 0xdd, 0x13, 0x12, 0xf0, 0xd2, 0xdc, 0xe0, 0xff, 0xfe,
  0xec, 0xbe, 0xd4, 0xe1, 0xeb, 0x18, 0x3b, 0xf8, 0x32, 0x1d, 0x2b, 0x0e,
  0x05, 0xe4, 0xf3, 0x46, 0x33, 0xc9, 0x0e, 0x0d, 0xe1, 0xf1, 0x04, 0x1a,
  0xfd, 0x08, 0x14, 0xb9, 0xc9, 0xe6, 0x11, 0x08, 0xfa, 0x1b, 0x0f, 0xdc,
  0x53, 0x29, 0xe7, 0xf7, 0xe7, 0x10, 0x4c, 0x2d, 0xa9, 0xc9, 0xfc, 0xd7,
  0xb4, 0x16, 0xfc, 0x09, 0x09, 0xd7, 0x2e, 0x20, 0x0b, 0xd3, 0x22, 0xa1,
  0xf7, 0xf9, 0x12, 0xd8, 0x08, 0xeb, 0x1b, 0xd3, 0xc9, 0xae, 0x00, 0xe4,
  0x3a, 0xeb, 0xe0, 0x18, 0xce, 0xe8, 0x1e, 0xf2, 0xbf, 0xe0, 0xfd, 0x17,
  0x02, 0xe1, 0x2b, 0xac, 0xe7, 0x26, 0x3f, 0x13, 0xde, 0xe2, 0xce, 0xf0,
  0x34, 0xde, 0xf4, 0x0f, 0xe8, 0x05, 0xcb, 0xcf, 0xee, 0xc5, 0x1c, 0xee,
  0xfd, 0x15, 0x25, 0xe1, 0x32, 0xe7, 0x09, 0xcc, 0xef, 0x15, 0x1b, 0xf2,
  0xe0, 0x07, 0x05, 0x21, 0x48, 0xf9, 0xfe, 0x02, 0xf1, 0x01, 0x26, 0x07,
  0x16, 0xfd, 0xe2, 0x2d, 0x11, 0x33, 0x3e, 0x1b, 0xe9, 0x39, 0x1c, 0x2b,
  0x27, 0x1c, 0xf5, 0xe8, 0xd6, 0x21, 0x32, 0x23, 0x00, 0xda, 0xf6, 0x02,
  0x0a, 0xee, 0xbc, 0x04, 0x01, 0x26, 0x26, 0xe0, 0x0a, 0xf3, 0xfc, 0x13,
  0x29, 0x1e, 0x06, 0x19, 0xda, 0xde, 0x15, 0x22, 0xc5, 0x3d, 0x35, 0xd6,
  0x04, 0xf1, 0x1c, 0x0e, 0x41, 0x18, 0xfc, 0xe4, 0x0e, 0xf8, 0x40, 0xdc,
  0x1f, 0x0b, 0xbe, 0xce, 0x3c, 0x2f, 0x1a, 0xf6, 0x10, 0x16, 0xda, 0x3b,
  0x14, 0x26, 0x28, 0x1c, 0x05, 0x58, 0xec, 0x54, 0x35, 0x04, 0xe4, 0x2f,
  0x12, 0xd0, 0xef, 0x07, 0xfb, 0xfb, 0xd4, 0x29, 0x2d, 0x18, 0x1a, 0xd6,
  0x0a, 0x12, 0x3f, 0xeb, 0x26, 0xd6, 0xfb, 0xed, 0x02, 0x2d, 0xf8, 0x0d,
  0xe1, 0xcf, 0xf4, 0x15, 0x21, 0x02, 0xe4, 0xdb, 0xdc, 0x1b, 0x0d, 0xc7,
  0xf5, 0xb8, 0xf5, 0xc2, 0x2f, 0xee, 0xeb, 0xfa, 0xcf, 0xd2, 0xdd, 0xcc,
  0xfd, 0xf5, 0x36, 0xbe, 0xe0, 0xe7, 0xcd, 0x10, 0xe6, 0x07, 0xfd, 0xe2,
  0xfe, 0x3d, 0x2c, 0x2d, 0x06, 0x37, 0xfd, 0x09, 0xa8, 0x53, 0x00, 0xd1,
  0x1f, 0xbd, 0x92, 0x3d, 0x14, 0x10, 0x22, 0xcd, 0xb1, 0x11, 0xc4, 0xf0,
  0xd1, 0x21, 0x97, 0xe0, 0xee, 0x17, 0x36, 0x09, 0xc6, 0x2c, 0xe3, 0xf9,
  0x06, 0x0b, 0xb6, 0xce, 0x19, 0xb6, 0x0c, 0x28, 0x21, 0x0f, 0x29, 0xcf,
  0x22, 0x3e, 0xd3, 0xd8, 0x22, 0xce, 0x06, 0x1e, 0xb4, 0xdd, 0x19, 0xe5,
  0x6a, 0x42, 0xd2, 0xf1, 0x2d, 0xf9, 0x24, 0xfa, 0xee, 0x0c, 0x27, 0x28,
  0x4e, 0xff, 0x18, 0xf0, 0xeb, 0xfb, 0x2c, 0x32, 0xe8, 0xfc, 0xdd, 0x2f,
  0xf7, 0x5e, 0xf1, 0x3d, 0x02, 0x09, 0xee, 0xf4, 0xb3, 0x0a, 0xd0, 0xb9,
  0x1b, 0xde, 0xeb, 0x25, 0xdc, 0xb1, 0x20, 0x07, 0x04, 0xd0, 0xe4, 0xde,
  0x1f, 0x4d, 0xe1, 0xd2, 0xa4, 0x28, 0x45, 0xe3, 0xe8, 0xe8, 0xb3, 0x44,
  0x49, 0x03, 0xe2, 0xe3, 0xed, 0xe6, 0x17, 0x12, 0x0b, 0x18, 0x04, 0xfd,
  0xf0, 0xfd, 0xf4, 0xff, 0xfb, 0x1f, 0x19, 0x50, 0xc3, 0xe5, 0x0f, 0x16,
  0xfe, 0x10, 0x04, 0xc8, 0xfe, 0x13, 0x14, 0x02, 0x0f, 0xd7, 0xb9, 0xd6,
  0x25, 0x05, 0x3e, 0x18, 0x98, 0xe6, 0xe4, 0x00, 0x1d, 0xe8, 0xbe, 0xca,
  0xd1, 0x27, 0x2b, 0xf4, 0xab, 0xd6, 0xc5, 0x2c, 0x1f, 0xcd, 0xdc, 0x1a,
  0x01, 0xe0, 0x1f, 0xec, 0xf2, 0xe5, 0xbd, 0x17, 0x4b, 0xd0, 0xa1, 0x11,
  0xc4, 0xe3, 0xc9, 0x06, 0xfe, 0xfd, 0xdc, 0xeb, 0x15, 0xf2, 0x0a, 0x21,
  0x14, 0xff, 0x2c, 0x09, 0x1b, 0x1b, 0xd4, 0x0f, 0xd9, 0xc8, 0x1e, 0x00,
  0xce, 0x22, 0xe6, 0xff, 0x12, 0x0a, 0xd2, 0x0f, 0x04, 0xe4, 0x0b, 0x20,
  0x1b, 0xef, 0xd8, 0x0e, 0x32, 0xee, 0x09, 0xd9, 0x18, 0xd6, 0xff, 0x19,
  0xe8, 0x3e, 0x17, 0xe0, 0x1e, 0x18, 0x48, 0xb2, 0xf6, 0xf7, 0x06, 0x40,
  0x42, 0xf2, 0x13, 0x01, 0x1b, 0xff, 0x4e, 0x17, 0x1f, 0xcd, 0x20, 0xfe,
  0x2e, 0x2a, 0x35, 0x2a, 0x45, 0xf4, 0x05, 0xdd, 0x29, 0xde, 0x2a, 0x33,
  0xde, 0xf0, 0xe4, 0x02, 0x01, 0xc1, 0x21, 0x24, 0x05, 0xb8, 0x11, 0xe7,
  0x3b, 0x22, 0x2e, 0xf4, 0x2e, 0xe1, 0xf7, 0x0b, 0x29, 0x31, 0xf9, 0xe7,
  0x13, 0x14, 0xfd, 0xe8, 0x06, 0xe1, 0xfb, 0xde, 0xd6, 0x14, 0x17, 0x13,
  0xfd, 0xed, 0x07, 0xed, 0x01, 0x04, 0xfe, 0xf5, 0x0c, 0xf6, 0x04, 0x2b,
  0x1e, 0xe0, 0xee, 0x0a, 0xcd, 0xfe, 0x1e, 0x24, 0xfa, 0x17, 0x21, 0x09,
  0xe9, 0x1e, 0x16, 0x35, 0x05, 0xc6, 0x06, 0xe0, 0x1d, 0x1e, 0x12, 0x1a,
  0xa5, 0x14, 0x02, 0x11, 0x3d, 0xd7, 0xb7, 0xfd, 0xf2, 0xed, 0x2c, 0xed,
  0xcc, 0xd0, 0xc9, 0xfd, 0xfa, 0x0e, 0xf3, 0xca, 0x0e, 0x26, 0xca, 0xe7,
  0x02, 0x19, 0xf2, 0x2a, 0x02, 0x00, 0x43, 0x0b, 0xe7, 0x16, 0xd6, 0x34,
  0x1a, 0xce, 0x14, 0x1f, 0xea, 0x53, 0xde, 0x2b, 0x11, 0x1a, 0xe3, 0x03,
  0x17, 0x1f, 0x0d, 0x0c, 0x55, 0x4c, 0xeb, 0x3d, 0xdf, 0xd8, 0x1e, 0x2d,
  0xd9, 0xfd, 0x0f, 0x02, 0x22, 0x0f, 0xde, 0x33, 0xdb, 0x38, 0x12, 0xf8,
  0x1f, 0xcc, 0x1e, 0x28, 0x1e, 0x10, 0x22, 0xfe, 0xf9, 0xe0, 0x2a, 0xfa,
  0xca, 0x30, 0x3c, 0x0f, 0xd3, 0x32, 0xf3, 0x37, 0xf8, 0x0d, 0xeb, 0xd5,
  0x01, 0x12, 0xd3, 0x2a, 0xd8, 0x03, 0x2e, 0xfe, 0xee, 0xfa, 0xd6, 0x17,
  0x16, 0xf4, 0xc6, 0x02, 0x05, 0x55, 0xc9, 0x1d, 0xed, 0xeb, 0xd8, 0x1d,
  0xec, 0x3f, 0xef, 0x0c, 0x81, 0xf5, 0x49, 0xf8, 0xf2, 0x12, 0x85, 0x0d,
  0xdc, 0x00, 0xda, 0x0f, 0xe9, 0x33, 0xbe, 0xe1, 0xe4, 0x15, 0xd6, 0x1d,
  0xc4, 0x1c, 0xf3, 0xe7, 0xcc, 0x41, 0xf9, 0xe4, 0x17, 0x0e, 0xdc, 0xe9,
  0x25, 0xea, 0xfb, 0x44, 0x0f, 0x56, 0xef, 0xf8, 0xfa, 0xec, 0xcf, 0x0e,
  0xdd, 0x01, 0xf7, 0xd0, 0xd2, 0x11, 0xfc, 0x24, 0x1a, 0x07, 0xe3, 0x32,
  0xbd, 0x14, 0x0b, 0x3f, 0xb1, 0x53, 0x0d, 0x08, 0xeb, 0x2a, 0xed, 0x09,
  0xcf, 0x0e, 0x1e, 0x21, 0x21, 0xb7, 0xb9, 0x04, 0x1c, 0xf8, 0x14, 0xfa,
  0x08, 0xfa, 0x40, 0x23, 0x2e, 0xdb, 0xec, 0x1b, 0x0f, 0xf6, 0xe0, 0x13,
  0x25, 0xdd, 0xf8, 0xbd, 0x2d, 0x27, 0xe4, 0x0f, 0x03, 0xf7, 0x0d, 0x1a,
  0xe0, 0x24, 0x18, 0x10, 0x32, 0x32, 0xdc, 0x18, 0xfe, 0x1b, 0x0e, 0x1b,
  0x01, 0xf1, 0xff, 0xf0, 0x0f, 0x14, 0x39, 0xdc, 0x2a, 0x0c, 0x07, 0x00,
  0xef, 0xfb, 0xe8, 0xd3, 0xeb, 0x32, 0xbc, 0xfb, 0xf8, 0xdd, 0xc3, 0xca,
  0xfd, 0x36, 0xc6, 0xf7, 0x22, 0x22, 0x9c, 0x3c, 0x33, 0xed, 0xdf, 0x14,
  0xf4, 0x59, 0x15, 0xcd, 0xe7, 0xf1, 0xf6, 0x4e, 0xe7, 0x21, 0x33, 0xf5,
  0xe4, 0x4c, 0x0d, 0xd9, 0xdb, 0xf0, 0xe1, 0x10, 0xdc, 0xff, 0x23, 0x0e,
  0x0c, 0x11, 0xde, 0x42, 0x05, 0x27, 0xea, 0x0d, 0xca, 0xf2, 0x10, 0xe2,
  0xdb, 0x55, 0x43, 0xe5, 0x0c, 0xfa, 0xe1, 0x06, 0x02, 0xd3, 0x09, 0xcd,
  0x4d, 0x20, 0x3b, 0xe6, 0xf5, 0xfb, 0x21, 0xff, 0xf3, 0xf9, 0xfd, 0xed,
  0xcb, 0x0f, 0x1a, 0x3b, 0x13, 0xff, 0x01, 0x05, 0x20, 0xc5, 0xff, 0xde,
  0xf5, 0xfd, 0x24, 0x38, 0x44, 0xde, 0x31, 0xec, 0xd2, 0xe8, 0x13, 0x10,
  0xb5, 0xc0, 0x13, 0xe7, 0xf9, 0x4b, 0xeb, 0x42, 0xee, 0xd2, 0xe8, 0x42,
  0xdb, 0x0f, 0xe8, 0xdf, 0x18, 0x13, 0xda, 0xc0, 0x44, 0x27, 0xeb, 0xec,
  0x0c, 0xc6, 0x1b, 0x18, 0xf3, 0xd1, 0xdc, 0xda, 0xf6, 0x04, 0x21, 0x0b,
  0x33, 0x3b, 0x21, 0x04, 0xfc, 0x5b, 0xf7, 0x17, 0xcb, 0xe3, 0x14, 0x09,
  0xce, 0x36, 0x25, 0x31, 0xbc, 0x27, 0xc6, 0xeb, 0xf7, 0x2c, 0xca, 0x40,
  0xf2, 0xfc, 0xfd, 0x08, 0x09, 0x5d, 0x09, 0xcb, 0xdb, 0xe1, 0x02, 0xe8,
  0xe4, 0x1b, 0xe9, 0x20, 0x2a, 0x5c, 0xec, 0x02, 0xf3, 0x1d, 0xea, 0x35,
  0x22, 0xea, 0xf9, 0x1c, 0xd2, 0xce, 0x4f, 0x04, 0x1a, 0xc3, 0xfa, 0xd7,
  0xd6, 0xf3, 0xef, 0x04, 0x24, 0xfc, 0x1e, 0x1c, 0xf9, 0x45, 0x24, 0xfe,
  0x11, 0x19, 0x3e, 0x07, 0x1e, 0xd1, 0x1c, 0xe9, 0xea, 0x0f, 0x18, 0x02,
  0x0a, 0xf2, 0x35, 0x04, 0x41, 0xef, 0x05, 0xfd, 0x2b, 0xca, 0x07, 0x43,
  0xfe, 0x3a, 0xcd, 0xee, 0x45, 0x07, 0x0a, 0xe2, 0x43, 0xfc, 0xf8, 0x19,
  0x08, 0xef, 0xfe, 0xd9, 0xd6, 0xfa, 0x07, 0xd3, 0x37, 0x0c, 0xf8, 0xe9,
  0x19, 0xb8, 0x01, 0x26, 0x19, 0xd3, 0xd8, 0xd3, 0xc2, 0xe9, 0xfd, 0xfb,
  0x03, 0xd6, 0xea, 0x17, 0x17, 0xc0, 0x03, 0xf7, 0xf7, 0xfd, 0xfa, 0x10,
  0x0d, 0x2e, 0x09, 0xeb, 0x28, 0xee, 0x1e, 0x2c, 0x15, 0x11, 0xe9, 0xdd,
  0x0b, 0xb1, 0xd9, 0xf6, 0xc5, 0x44, 0xd2, 0x30, 0x33, 0xfb, 0xbe, 0x09,
  0xd1, 0x01, 0x1f, 0xf2, 0xe2, 0x13, 0xcc, 0x19, 0x24, 0x20, 0x0e, 0xd9,
  0x16, 0x28, 0x05, 0x11, 0xa9, 0xf7, 0xc1, 0x1b, 0xda, 0x07, 0xcd, 0x13,
  0xb7, 0xd7, 0xd9, 0x18, 0xf1, 0xe7, 0x29, 0xf1, 0x11, 0xcf, 0x01, 0xcc,
  0x07, 0xdd, 0xcf, 0x16, 0x2e, 0x35, 0xf3, 0xc4, 0x1b, 0xe4, 0x1a, 0xef,
  0x31, 0xe1, 0x12, 0x3c, 0xc6, 0xd6, 0x36, 0x26, 0xe0, 0xfd, 0xc0, 0xbe,
  0x05, 0x52, 0xd7, 0x1b, 0xdb, 0xf5, 0x14, 0x13, 0xcd, 0x17, 0x92, 0x30,
  0xde, 0x4b, 0xcb, 0xf3, 0x8f, 0xd9, 0x1e, 0x27, 0xff, 0xef, 0xf2, 0x0e,
  0x1f, 0x1f, 0xb9, 0xee, 0xc1, 0xfa, 0x0f, 0xcf, 0xe1, 0x29, 0xe9, 0xfd,
  0xec, 0x34, 0xd0, 0x30, 0x42, 0x01, 0xd3, 0x06, 0xe3, 0x3b, 0xea, 0x1e,
  0x09, 0x2e, 0xd7, 0x11, 0x0c, 0xe7, 0x1d, 0x4e, 0x2c, 0xf7, 0x2b, 0x3a,
  0xf7, 0xdd, 0xd8, 0x0e, 0x44, 0x19, 0x15, 0x13, 0x26, 0xd3, 0xb5, 0x21,
  0xe4, 0xf8, 0x10, 0x27, 0x3d, 0xf9, 0xb4, 0x19, 0xf6, 0xe1, 0xfa, 0xf1,
  0x23, 0x19, 0xd1, 0xed, 0x1f, 0xf1, 0xf9, 0x20, 0xfa, 0x02, 0x0b, 0x0e,
  0x3c, 0x5c, 0xb8, 0x00, 0xcf, 0x4b, 0x09, 0x0d, 0xf7, 0xdc, 0xe5, 0x46,
  0x03, 0xe4, 0xd5, 0xff, 0x05, 0xf5, 0xf7, 0xe8, 0x26, 0xe6, 0xf0, 0x09,
  0xff, 0xdb, 0x18, 0x22, 0xe5, 0xbc, 0x12, 0xe0, 0x10, 0x1a, 0xb2, 0xd4,
  0x3c, 0xc0, 0x0a, 0x1f, 0xce, 0x05, 0x25, 0xe7, 0xcc, 0xfb, 0xf4, 0xd7,
  0xff, 0xff, 0xf5, 0x28, 0x1e, 0x1f, 0x04, 0x28, 0x01, 0x0d, 0xe1, 0x0f,
  0xf9, 0xd1, 0x01, 0x06, 0xf0, 0xd1, 0x57, 0xea, 0x12, 0xe9, 0xe4, 0xbd,
  0x06, 0x1c, 0xd4, 0x1b, 0xfc, 0xda, 0x03, 0x23, 0xd5, 0x03, 0xd0, 0x0b,
  0x0a, 0x2c, 0x35, 0x04, 0xbd, 0xd0, 0x27, 0xd1, 0xe7, 0xfa, 0xe9, 0x04,
  0xf1, 0xf5, 0x02, 0x13, 0x10, 0xe4, 0xdd, 0x0e, 0x0e, 0xe8, 0xbc, 0xdb,
  0x15, 0xf4, 0x07, 0x11, 0xb3, 0xe5, 0xe1, 0xcc, 0xb7, 0x0c, 0x1f, 0xcd,
  0x1a, 0xf3, 0xf8, 0xef, 0xf8, 0xb2, 0x39, 0xea, 0xd3, 0xfd, 0xbb, 0xcf,
  0x2f, 0x13, 0x11, 0xf6, 0xe0, 0x2b, 0xc2, 0xfa, 0x8a, 0x0f, 0x25, 0x1b,
  0x27, 0x2e, 0xdd, 0xee, 0xec, 0x3d, 0x1b, 0x1b, 0xcc, 0xfa, 0x9b, 0xfe,
  0x22, 0x0e, 0x8d, 0x26, 0xce, 0xdf, 0x0c, 0x5b, 0xa5, 0x05, 0x12, 0x00,
  0xe1, 0x05, 0xd5, 0x00, 0xe2, 0xf7, 0x03, 0x24, 0xb1, 0xf3, 0x1a, 0xe6,
  0xed, 0x4d, 0xcb, 0xb7, 0x10, 0x1f, 0x21, 0x15, 0x02, 0xeb, 0x4c, 0xce,
  0x1c, 0x40, 0xe9, 0xd4, 0x04, 0x08, 0x10, 0xe1, 0x1d, 0x0e, 0x16, 0x25,
  0x1a, 0x12, 0xcc, 0xfa, 0xd2, 0x11, 0x21, 0xe2, 0xd2, 0xd8, 0xd5, 0x5c,
  0x15, 0x20, 0xe7, 0xf8, 0xb8, 0xe4, 0x2b, 0x3a, 0x1b, 0xcf, 0xef, 0xde,
  0xd0, 0x21, 0xe2, 0xe4, 0x04, 0x11, 0xdf, 0xfa, 0x31, 0xfb, 0xe8, 0xef,
  0xfd, 0x27, 0xc8, 0xd2, 0xfc, 0x44, 0x12, 0x15, 0xd7, 0x1e, 0xbf, 0x0e,
  0x02, 0x03, 0x2c, 0xe4, 0xd7, 0x24, 0xf4, 0xf2, 0xba, 0xec, 0xef, 0xd3,
  0x21, 0x38, 0x34, 0xdc, 0xf2, 0xf6, 0x39, 0xf9, 0x2f, 0xc0, 0xf2, 0xf3,
  0x20, 0xd1, 0x14, 0xad, 0x23, 0xff, 0x22, 0xf6, 0x0e, 0xdc, 0xdf, 0xfa,
  0x0d, 0xc6, 0x12, 0xda, 0xcd, 0xfc, 0xfc, 0xee, 0xff, 0xc6, 0x0c, 0xf6,
  0xe7, 0xf4, 0xef, 0x19, 0xdd, 0xeb, 0xfb, 0xce, 0x2b, 0x1a, 0xde, 0xcd,
  0x0c, 0xd2, 0xc2, 0x07, 0x96, 0xbc, 0xdb, 0xb0, 0xd1, 0xfa, 0xf9, 0x0d,
  0x1b, 0x13, 0x03, 0xdd, 0x16, 0xfd, 0xf2, 0xf5, 0xf9, 0xb3, 0x17, 0x3b,
  0x29, 0x0e, 0x13, 0xf2, 0x36, 0x1d, 0x40, 0xb6, 0x06, 0xd9, 0x50, 0x29,
  0x60, 0xee, 0x1e, 0xf3, 0x07, 0x19, 0x06, 0xc2, 0x32, 0x08, 0xe5, 0x61,
  0x0e, 0xef, 0xce, 0x02, 0xff, 0x13, 0x22, 0xcc, 0xc3, 0xd3, 0x56, 0xfd,
  0x34, 0x04, 0x32, 0xdf, 0xfc, 0x03, 0x14, 0x0e, 0x8e, 0xc4, 0x3e, 0xdb,
  0xc1, 0xde, 0xbc, 0xfd, 0xef, 0xe7, 0x03, 0x18, 0xb1, 0x9d, 0xb9, 0x0a,
  0x3e, 0x0a, 0xf2, 0xdc, 0xf4, 0xad, 0xf5, 0xc7, 0xe2, 0xc1, 0xfa, 0x03,
  0x18, 0xf9, 0x23, 0x06, 0x1d, 0x09, 0x0b, 0x19, 0xf6, 0x14, 0xdd, 0x19,
  0xf8, 0x04, 0xdd, 0xba, 0xfc, 0xb9, 0x19, 0xfb, 0xd9, 0xe6, 0x38, 0xf7,
  0x0a, 0x03, 0x22, 0x24, 0xdf, 0x02, 0x05, 0xed, 0x15, 0x19, 0x39, 0x1b,
  0x13, 0xe2, 0xe2, 0xdb, 0xd0, 0x2f, 0x09, 0xaf, 0xb0, 0xdf, 0x00, 0xd8,
  0xec, 0xe8, 0x05, 0x06, 0x2f, 0x1b, 0xd2, 0x13, 0xf2, 0xb0, 0x06, 0x32,
  0x2c, 0xeb, 0xf5, 0x10, 0x09, 0x28, 0xe7, 0x22, 0xeb, 0x0d, 0x0e, 0x16,
  0x25, 0xf8, 0xd0, 0xe4, 0xe2, 0x1f, 0x50, 0x43, 0xea, 0xc9, 0xe9, 0x5f,
  0xfe, 0xfe, 0xfc, 0xd6, 0x02, 0xdb, 0x23, 0xc4, 0xf9, 0x2b, 0xf9, 0xf3,
  0x4f, 0x3f, 0x1c, 0x15, 0xe5, 0xba, 0x0a, 0x43, 0xd6, 0x20, 0x4d, 0x0a,
  0x10, 0x02, 0xee, 0xc4, 0x3f, 0xd5, 0x0d, 0xea, 0xfc, 0xe7, 0xdc, 0x31,
  0x30, 0x34, 0x3e, 0x17, 0xfd, 0xdc, 0xfb, 0x3c, 0xde, 0xec, 0x23, 0xbc,
  0x02, 0xfd, 0x15, 0x3e, 0x0e, 0xf1, 0xd1, 0xf1, 0x3e, 0xf3, 0x05, 0x03,
  0x9d, 0x34, 0x1a, 0x0b, 0x46, 0xec, 0xd1, 0x09, 0x20, 0xd7, 0x1c, 0x2c,
  0xe8, 0x0c, 0x47, 0xf4, 0x6d, 0x30, 0xb0, 0xf1, 0x07, 0xf5, 0x1a, 0x40,
  0xa0, 0x12, 0xd6, 0x33, 0x27, 0x23, 0x02, 0x1a, 0xe1, 0x0a, 0x43, 0xbf,
  0xcf, 0xf6, 0xf4, 0x04, 0x7f, 0xf7, 0x1a, 0x1d, 0x11, 0x02, 0x38, 0x23,
  0x1b, 0x0b, 0xfb, 0x22, 0x2a, 0x37, 0xce, 0xf4, 0xe8, 0x15, 0x21, 0xdb,
  0xc9, 0xf2, 0xd6, 0x05, 0xfa, 0xe6, 0xbe, 0xef, 0x19, 0xc7, 0x19, 0x26,
  0xc9, 0x11, 0x11, 0xb3, 0x15, 0x21, 0x11, 0xde, 0xb2, 0xd6, 0x24, 0x27,
  0x3f, 0xd1, 0x2e, 0xf8, 0x23, 0xf3, 0x0e, 0xcc, 0x10, 0xe9, 0xe6, 0xfc,
  0x07, 0xe9, 0x28, 0xd7, 0xcf, 0x08, 0x13, 0x3f, 0x2b, 0xea, 0xcb, 0xfa,
  0x4c, 0x2a, 0x1f, 0xdc, 0xab, 0x2d, 0x1e, 0xce, 0xe2, 0xf3, 0x1b, 0x0a,
  0xf0, 0xbc, 0xf5, 0x03, 0xf1, 0x32, 0xfc, 0x01, 0xc3, 0x04, 0xcc, 0xf0,
  0x1e, 0xfc, 0x3d, 0x12, 0xcb, 0x2d, 0x18, 0xac, 0x1a, 0xfd, 0xeb, 0x46,
  0x22, 0x05, 0x07, 0x08, 0xf6, 0xde, 0x2d, 0xff, 0x12, 0xe9, 0x0f, 0x4c,
  0x1d, 0x12, 0xe1, 0xb3, 0xd9, 0xfc, 0x0f, 0xb1, 0xf6, 0x23, 0xe3, 0xee,
  0xea, 0x21, 0xe7, 0xc9, 0xd7, 0xb7, 0x0f, 0x0b, 0x11, 0xf3, 0x02, 0xf6,
  0xd6, 0x3b, 0xdc, 0xd3, 0x19, 0x0f, 0x46, 0x14, 0xdb, 0xb5, 0xf5, 0xf1,
  0xec, 0x1e, 0xe8, 0xfe, 0x3f, 0x19, 0x13, 0x29, 0xd8, 0x9a, 0xce, 0xb0,
  0x29, 0xaf, 0xe2, 0xcc, 0x09, 0xd5, 0xe6, 0xd7, 0x52, 0xe5, 0x10, 0x14,
  0xd4, 0xe9, 0x23, 0xdc, 0xd8, 0xf4, 0x19, 0xe4, 0x1e, 0xd7, 0xf3, 0x12,
  0xc7, 0x1a, 0xdb, 0xaa, 0xdb, 0x08, 0xf1, 0xea, 0xe6, 0x03, 0xb0, 0xb5,
  0x07, 0xf8, 0x25, 0x05, 0x98, 0x0e, 0xbc, 0xd4, 0x0a, 0x1f, 0xc2, 0xae,
  0x2e, 0xde, 0xe3, 0xed, 0xea, 0x0b, 0x0e, 0x1a, 0x35, 0xc3, 0xde, 0x1e,
  0x2e, 0xa3, 0x26, 0xc3, 0xf5, 0x21, 0x2c, 0x14, 0xe8, 0x0f, 0x0d, 0x39,
  0xdf, 0xd6, 0x1f, 0x2e, 0xf8, 0xe8, 0xf5, 0x14, 0x05, 0x13, 0x13, 0x19,
  0xdb, 0xdd, 0xff, 0x38, 0x01, 0x16, 0xe8, 0x20, 0x19, 0xd4, 0x00, 0x2b,
  0xe2, 0xe5, 0x1c, 0xd8, 0xfe, 0xff, 0x17, 0x09, 0x22, 0xcb, 0x1c, 0x4b,
  0xdf, 0x04, 0xdf, 0xe6, 0xd2, 0x06, 0x21, 0xff, 0xdc, 0x25, 0xc5, 0xe7,
  0xcd, 0x04, 0x07, 0x0d, 0x2e, 0xe8, 0xd9, 0xf8, 0xe5, 0x01, 0x1a, 0x14,
  0x1a, 0xd8, 0xed, 0xf7, 0xed, 0xc8, 0xea, 0xd2, 0xd8, 0x26, 0x29, 0x0d,
  0xe6, 0xd5, 0x2f, 0xeb, 0xf7, 0xd2, 0x2c, 0xed, 0xf8, 0x13, 0x10, 0x3b,
  0xb6, 0x05, 0x03, 0x03, 0xc7, 0xe9, 0xd8, 0xff, 0x1b, 0xee, 0x06, 0x9f,
  0x36, 0x03, 0xe9, 0x08, 0x09, 0x0c, 0xf5, 0xd9, 0x23, 0x19, 0x04, 0xe2,
  0xea, 0x1f, 0x2c, 0xdf, 0x07, 0xbf, 0xf6, 0x02, 0xc9, 0xf6, 0x35, 0xd6,
  0xfd, 0xc8, 0x12, 0xf7, 0xcc, 0xf9, 0x21, 0xd3, 0x23, 0x09, 0x0f, 0x1e,
  0x26, 0x26, 0x09, 0x44, 0x1a, 0xc4, 0x08, 0x05, 0x0a, 0x08, 0xfb, 0xf5,
  0xfa, 0xfc, 0x3d, 0xf1, 0xde, 0xfe, 0xf0, 0xeb, 0x50, 0x37, 0xeb, 0x0a,
  0x26, 0x36, 0xf3, 0x1e, 0xdc, 0x0f, 0x04, 0xfb, 0x0c, 0x0c, 0x0b, 0xd3,
  0x2a, 0xe0, 0xc9, 0xf5, 0x1b, 0x24, 0x27, 0x11, 0x40, 0x1a, 0xe6, 0xfc,
  0x34, 0x15, 0x23, 0xf3, 0xe2, 0xb4, 0x13, 0x2a, 0x03, 0x14, 0xdc, 0xf5,
  0x35, 0x0f, 0x21, 0xd3, 0x25, 0x0a, 0x1a, 0x01, 0xff, 0xfa, 0xda, 0x09,
  0xc8, 0x09, 0x3f, 0x14, 0x09, 0x11, 0xa7, 0x11, 0x46, 0x17, 0xd6, 0x1e,
  0xd8, 0x20, 0xf1, 0x17, 0xe6, 0x25, 0xc7, 0x28, 0x17, 0xfe, 0xfc, 0xcc,
  0xe3, 0x46, 0xf9, 0x0a, 0xa3, 0x26, 0xc3, 0xf1, 0x0e, 0x01, 0x13, 0x36,
  0xf4, 0xe3, 0x16, 0x3d, 0xf2, 0xac, 0x18, 0xe0, 0x4e, 0xd9, 0x4b, 0xd3,
  0xcb, 0x05, 0xe0, 0x2c, 0x4f, 0xe6, 0xb1, 0x18, 0x1b, 0x1b, 0x6a, 0xf1,
  0xec, 0xbb, 0x2d, 0x1e, 0xfc, 0x37, 0xc1, 0xfc, 0xd6, 0xff, 0xe5, 0xf9,
  0x22, 0xef, 0x17, 0x45, 0xf2, 0x06, 0x29, 0xdb, 0xe0, 0x0e, 0xfe, 0x08,
  0x05, 0x1d, 0xed, 0x18, 0xe1, 0x45, 0xf4, 0x34, 0x05, 0xf5, 0xd0, 0x14,
  0xfb, 0xe0, 0xbf, 0xfe, 0x3a, 0x16, 0xe2, 0xd4, 0x1f, 0x27, 0xfa, 0x00,
  0x19, 0xf4, 0xd4, 0x38, 0x15, 0x09, 0x05, 0x00, 0xfd, 0x12, 0xf8, 0xed,
  0x0c, 0x52, 0xe0, 0x0c, 0xfc, 0x07, 0x01, 0xf2, 0x2a, 0xf9, 0x2a, 0x2c,
  0x01, 0x04, 0x01, 0x1a, 0x33, 0x05, 0x08, 0xcc, 0xdf, 0xf1, 0x10, 0x33,
  0x0e, 0x08, 0xdc, 0x0d, 0xd1, 0xe4, 0x15, 0x15, 0x13, 0x00, 0x0b, 0x0c,
  0x0f, 0x38, 0x23, 0xc6, 0xf6, 0xf4, 0x0d, 0x2f, 0xed, 0xf6, 0x3e, 0x32,
  0xe8, 0x19, 0x1b, 0xc8, 0xfd, 0x23, 0xee, 0x12, 0x08, 0x06, 0xaa, 0x45,
  0xf9, 0xfe, 0xda, 0x3a, 0xfe, 0xb9, 0x02, 0x19, 0x72, 0x04, 0xb9, 0xfb,
  0x04, 0x1f, 0x7a, 0xc2, 0x17, 0xfd, 0xf6, 0x22, 0x09, 0x13, 0xf6, 0xce,
  0xdc, 0xca, 0x25, 0xe7, 0x0b, 0x21, 0xfc, 0x16, 0x21, 0xe3, 0xcf, 0x0e,
  0x08, 0xe3, 0x4b, 0xef, 0xdb, 0x33, 0xa3, 0xa0, 0x03, 0xed, 0xb9, 0xf1,
  0xc4, 0xae, 0x21, 0xe6, 0xa2, 0xfb, 0xc0, 0x00, 0x4a, 0x37, 0xe9, 0xca,
  0x13, 0xc1, 0x12, 0xdd, 0x9a, 0xd5, 0x06, 0x0c, 0x0f, 0x20, 0xe8, 0x02,
  0xe4, 0x15, 0xf8, 0x19, 0xe7, 0xf4, 0xda, 0xe5, 0x36, 0xef, 0x01, 0x0b,
  0xdd, 0xf4, 0x5f, 0xf1, 0x11, 0xd0, 0xfd, 0x05, 0x1d, 0xe5, 0xfa, 0xf3,
  0xbf, 0xcf, 0x1f, 0x36, 0xb5, 0xf2, 0xf2, 0x12, 0x25, 0xf4, 0x0a, 0xdd,
  0xe2, 0xd1, 0xf2, 0x0e, 0xe8, 0xe5, 0x0a, 0x3b, 0xe5, 0xd2, 0xca, 0x8b,
  0xd3, 0xe6, 0x20, 0xe7, 0xea, 0xf1, 0xe5, 0xc9, 0xcd, 0xe4, 0x0d, 0x15,
  0x48, 0x15, 0xc1, 0xea, 0x02, 0x09, 0x2e, 0x05, 0x18, 0xe3, 0xfe, 0xe3,
  0xe6, 0xbb, 0x13, 0xc4, 0x07, 0x22, 0xf0, 0xfa, 0x3c, 0x02, 0xe2, 0xe4,
  0x06, 0xe8, 0xf5, 0xcb, 0x3f, 0xfe, 0xbb, 0x23, 0xf7, 0xdb, 0xcc, 0x03,
  0x34, 0x25, 0x1f, 0xf9, 0xdc, 0x27, 0xf0, 0xe5, 0xe3, 0xce, 0x41, 0xed,
  0xed, 0xcc, 0xbf, 0xcc, 0xf8, 0x41, 0xe3, 0xc7, 0x25, 0x00, 0x01, 0xd6,
  0x1e, 0xe9, 0x25, 0xf2, 0x12, 0x56, 0xe1, 0xc9, 0x1a, 0x20, 0xfa, 0xda,
  0x00, 0xc1, 0xff, 0x0f, 0x07, 0x04, 0xe2, 0x11, 0x14, 0x0a, 0xf2, 0x18,
  0xef, 0xed, 0x07, 0x0d, 0x0b, 0x39, 0xfb, 0xd0, 0xe9, 0xea, 0xe9, 0xf0,
  0xf7, 0x14, 0xe4, 0xf7, 0x05, 0x0e, 0x0c, 0x02, 0xf9, 0x00, 0xee, 0x58,
  0xfd, 0xe8, 0xfe, 0x10, 0xda, 0x3f, 0xc6, 0x07, 0x2d, 0xda, 0x09, 0x06,
  0xf8, 0xee, 0xf4, 0xfa, 0xdf, 0x1f, 0xc6, 0xf4, 0x0a, 0x20, 0xd3, 0x16,
  0xce, 0xf8, 0x4b, 0x3d, 0x06, 0x2d, 0xd5, 0xe3, 0x46, 0xf8, 0xd8, 0x43,
  0xdc, 0x03, 0x17, 0x1f, 0xc9, 0x1e, 0xac, 0xfe, 0x38, 0xdc, 0xec, 0x13,
  0xf7, 0xfb, 0x04, 0x08, 0xbd, 0x34, 0xf1, 0xd6, 0xff, 0xf7, 0xd8, 0xff,
  0xf4, 0x20, 0x11, 0x4a, 0x04, 0x1f, 0x1f, 0xd4, 0xc0, 0x31, 0xe5, 0x13,
  0x2d, 0xfe, 0xd2, 0xf1, 0x1b, 0x22, 0x1c, 0xc2, 0x39, 0x20, 0xfa, 0x2f,
  0x4c, 0x06, 0x0f, 0x02, 0x1b, 0x25, 0x63, 0x0e, 0x09, 0x0a, 0xfa, 0x10,
  0x07, 0xc5, 0x05, 0xe1, 0xc0, 0xf6, 0x41, 0x29, 0x0c, 0xda, 0xef, 0xed,
  0xfe, 0xe1, 0x24, 0x3a, 0xfc, 0xbc, 0x1e, 0x0d, 0x1d, 0xf9, 0x14, 0xc1,
  0x23, 0x3b, 0x38, 0x0d, 0xb6, 0x0b, 0x0c, 0x1d, 0xbc, 0x0d, 0xca, 0xc5,
  0x09, 0xf8, 0x34, 0xee, 0xde, 0xf5, 0xd5, 0xe1, 0xc5, 0x0a, 0xdb, 0x2c,
  0xe5, 0x32, 0xfc, 0xcc, 0x01, 0xb6, 0xb5, 0x4f, 0x3d, 0xdd, 0xd8, 0x26,
  0xcb, 0xf1, 0x01, 0xe6, 0xfa, 0x0b, 0xc0, 0xdb, 0xfe, 0x25, 0xf5, 0x38,
  0xe6, 0xdf, 0xd7, 0x2a, 0x43, 0xf6, 0x09, 0x41, 0xdf, 0x0b, 0xda, 0xd6,
  0x05, 0x07, 0xd7, 0xcb, 0x07, 0xe2, 0xed, 0xf4, 0x16, 0x2e, 0xf8, 0xd9,
  0xfd, 0x35, 0xfe, 0xfb, 0x47, 0x36, 0xc7, 0x06, 0xb9, 0x12, 0xfb, 0x52,
  0x41, 0x0f, 0xd7, 0x0d, 0x10, 0x3c, 0xe3, 0x39, 0xf2, 0xee, 0xfe, 0x03,
  0x35, 0x26, 0xf2, 0xf8, 0x06, 0x29, 0xd1, 0x14, 0xfd, 0x06, 0xee, 0x0f,
  0xec, 0x07, 0xe2, 0x11, 0x09, 0xee, 0x07, 0xce, 0x39, 0xcc, 0xfa, 0x3a,
  0x0d, 0x01, 0xd6, 0xe8, 0xee, 0x23, 0xd9, 0x43, 0xf0, 0x1d, 0x14, 0x2a,
  0xa6, 0xd6, 0xf9, 0x01, 0xbb, 0x33, 0xf2, 0x05, 0x62, 0x0d, 0xac, 0xff,
  0x05, 0xc5, 0xff, 0xe4, 0x00, 0x12, 0xb8, 0xcc, 0x16, 0xf0, 0xbf, 0x2a,
  0xde, 0x0e, 0x28, 0x1c, 0x16, 0x3f, 0xed, 0x14, 0xdd, 0xdf, 0xc8, 0x65,
  0xff, 0xe1, 0x0b, 0x0c, 0xb0, 0x32, 0x10, 0x02, 0xe5, 0x3b, 0xfb, 0x04,
  0xec, 0xfe, 0x0e, 0xed, 0x1d, 0x1c, 0x13, 0x09, 0xf6, 0x32, 0xe6, 0x0b,
  0x36, 0xe2, 0x06, 0x2c, 0x4a, 0x05, 0x25, 0xd0, 0x0e, 0xfd, 0x21, 0x06,
  0xf2, 0x10, 0x1b, 0x3c, 0x06, 0x1d, 0x4b, 0xed, 0xf8, 0x2a, 0x25, 0x13,
  0x01, 0xe4, 0xed, 0x00, 0x45, 0xce, 0x15, 0xfa, 0x1b, 0xec, 0x04, 0x1a,
  0xe9, 0xf4, 0x48, 0x26, 0x31, 0xc5, 0xe5, 0x1b, 0xe7, 0x21, 0x28, 0xba,
  0xfa, 0xfd, 0xed, 0xf2, 0xf2, 0xd8, 0xf5, 0x2f, 0xbf, 0x01, 0x2b, 0xc6,
  0xe5, 0x0a, 0xd9, 0x14, 0x27, 0x03, 0x13, 0x26, 0xb4, 0xc6, 0xfd, 0x01,
  0xfa, 0xfc, 0xc9, 0xf1, 0xe2, 0xc6, 0x0c, 0x09, 0xd0, 0xa8, 0xe0, 0x25,
  0xf1, 0xc9, 0x29, 0x1c, 0x43, 0xe8, 0xd0, 0xcb, 0x26, 0xb8, 0xfc, 0x06,
  0x11, 0xef, 0xfc, 0xc9, 0xff, 0xda, 0x28, 0xc6, 0x2b, 0xda, 0xe2, 0xe1,
  0xd9, 0xe5, 0xe9, 0x10, 0xbd, 0xfa, 0xe4, 0xe2, 0xfc, 0xfd, 0x9e, 0xef,
  0xe6, 0x07, 0xcd, 0xc2, 0xea, 0x3f, 0xf5, 0xf2, 0x13, 0x2a, 0xd1, 0xf9,
  0x05, 0x12, 0xfc, 0x0f, 0xf7, 0x04, 0xd7, 0x40, 0xd9, 0xfd, 0x21, 0xf9,
  0x3f, 0x04, 0xc4, 0xf9, 0x43, 0x0c, 0x09, 0x14, 0xf7, 0x00, 0xe2, 0xf4,
  0x32, 0xec, 0x37, 0xd9, 0x23, 0x01, 0x28, 0xf9, 0x32, 0x0d, 0xf7, 0x32,
  0x58, 0x00, 0x3e, 0x0f, 0x26, 0x03, 0x2c, 0xee, 0x1a, 0x0c, 0x13, 0xdf,
  0x15, 0xcf, 0x16, 0xf8, 0xca, 0xe6, 0x10, 0xfe, 0xe3, 0xf9, 0xf7, 0xf5,
  0x5c, 0xdc, 0xf3, 0x00, 0xff, 0xe8, 0xfd, 0x11, 0xc4, 0xe8, 0xd0, 0x23,
  0x0f, 0xed, 0xfd, 0xf9, 0x16, 0x15, 0x0c, 0xcc, 0x21, 0xe0, 0x3a, 0xb6,
  0x0a, 0xee, 0xc5, 0xc1, 0xe2, 0xf6, 0x1e, 0x03, 0xcd, 0xf2, 0xe8, 0xfe,
  0xfd, 0x0e, 0xd0, 0x13, 0xf2, 0xf8, 0x2f, 0xcc, 0xe8, 0xca, 0xdc, 0xec,
  0x1b, 0xec, 0xef, 0xde, 0x02, 0xf5, 0x38, 0xc1, 0xc9, 0xe1, 0xf6, 0xbc,
  0xf3, 0xba, 0xc6, 0x0d, 0xed, 0xdb, 0x3e, 0xe7, 0xeb, 0xbe, 0x1a, 0x15,
  0x33, 0xf4, 0x16, 0xd8, 0xe1, 0xf0, 0x3a, 0x34, 0xfe, 0xd1, 0x0d, 0xfb,
  0x51, 0xf8, 0xce, 0xd7, 0xdd, 0x15, 0x38, 0x24, 0x08, 0xce, 0xda, 0x14,
  0x29, 0x24, 0x21, 0x08, 0x08, 0x45, 0xf6, 0xfa, 0xf1, 0xc0, 0xe0, 0x0a,
  0x07, 0xc9, 0x16, 0xf0, 0xec, 0xec, 0x25, 0xef, 0x0c, 0x46, 0xd0, 0xf2,
  0x11, 0xc9, 0x00, 0xf8, 0xd6, 0xf1, 0x14, 0x22, 0xe7, 0x36, 0x29, 0xf4,
  0x14, 0xd6, 0xa4, 0xe6, 0x08, 0x00, 0xfd, 0x4a, 0xef, 0x15, 0x6a, 0xf5,
  0x10, 0x31, 0xc9, 0x08, 0x4b, 0xd1, 0x18, 0xf0, 0xf1, 0xe6, 0x13, 0xe2,
  0x34, 0x19, 0xe6, 0xfc, 0x4a, 0xce, 0x0e, 0x46, 0xde, 0xda, 0xdf, 0xe3,
  0x40, 0x05, 0x0d, 0x34, 0xf9, 0xda, 0x29, 0x3d, 0xd6, 0xc9, 0x0e, 0xb0,
  0x13, 0x22, 0xd1, 0xec, 0x3e, 0xc3, 0x20, 0x03, 0xef, 0xe5, 0xfc, 0xd1,
  0x28, 0xef, 0xd2, 0x18, 0xc4, 0x24, 0x42, 0x09, 0x01, 0x23, 0xe9, 0xce,
  0x1c, 0x39, 0xd0, 0x1a, 0xd0, 0xc9, 0x14, 0x14, 0xdb, 0x25, 0xcc, 0x0a,
  0x41, 0x0f, 0x1d, 0x22, 0x4a, 0xe4, 0xb7, 0x04, 0x06, 0x1a, 0xd3, 0x03,
  0xea, 0xee, 0xfe, 0x40, 0x14, 0x43, 0xe5, 0xfc, 0x19, 0x17, 0xf6, 0xe8,
  0xd9, 0x29, 0x0f, 0xe8, 0xf2, 0x0f, 0xfa, 0x40, 0xfd, 0x38, 0xe3, 0xe2,
  0xd6, 0x2e, 0xf4, 0x4c, 0xc9, 0x00, 0xce, 0x3c, 0xea, 0xe2, 0x0d, 0x2f,
  0xc9, 0x29, 0xfe, 0x20, 0xde, 0xe1, 0xf3, 0x23, 0x1b, 0xcf, 0xf6, 0x41,
  0xfa, 0x22, 0x0b, 0xdc, 0xe4, 0x21, 0xf7, 0xfb, 0xc9, 0xf2, 0x04, 0x38,
  0x1d, 0xe2, 0x08, 0x26, 0xde, 0x1c, 0xc9, 0x48, 0xfc, 0x08, 0x01, 0x1d,
  0x01, 0x49, 0x13, 0xdb, 0x0c, 0xd1, 0xdd, 0x41, 0x07, 0x07, 0x2a, 0xc1,
  0x08, 0x10, 0xef, 0x33, 0xd9, 0xfb, 0x04, 0x0c, 0x1e, 0x08, 0x29, 0xc6,
  0xf4, 0x20, 0xf7, 0x08, 0x1a, 0x2d, 0xda, 0x12, 0xbd, 0xd6, 0x24, 0x4b,
  0x11, 0x06, 0x23, 0xd1, 0x05, 0x16, 0xe8, 0xe4, 0x1e, 0x06, 0xf5, 0xed,
  0xef, 0xf7, 0xd6, 0xea, 0x15, 0x34, 0xdd, 0xcc, 0xee, 0x1a, 0x28, 0x45,
  0x1e, 0x2a, 0xec, 0xd6, 0x3e, 0x05, 0xf9, 0x2f, 0x23, 0x28, 0x12, 0x23,
  0xf9, 0x03, 0x16, 0xf2, 0x1b, 0xde, 0xcc, 0x1e, 0x04, 0x08, 0x22, 0xf3,
  0x1f, 0xe8, 0x04, 0x10, 0x24, 0x13, 0xe9, 0x0d, 0xce, 0xfd, 0xda, 0xda,
  0x25, 0xd7, 0x14, 0xe1, 0x1d, 0x03, 0x08, 0xce, 0x0b, 0x24, 0xd4, 0xf6,
  0xb5, 0x02, 0x10, 0x10, 0x1e, 0xc5, 0x11, 0xe8, 0x02, 0xfb, 0xf5, 0x19,
  0xc9, 0x27, 0x11, 0xeb, 0xd4, 0xf4, 0x0e, 0xbc, 0x05, 0xd6, 0xf3, 0x27,
  0x0e, 0xe4, 0xf7, 0xe8, 0xe7, 0xf5, 0xb7, 0x2f, 0xe5, 0xe0, 0xc2, 0xd8,
  0x14, 0x3b, 0xf8, 0xfc, 0x24, 0xbd, 0xec, 0x08, 0xd7, 0x1a, 0x12, 0x07,
  0xbb, 0x12, 0x02, 0xef, 0x27, 0x23, 0x17, 0xf1, 0x07, 0x21, 0x1f, 0xf7,
  0x2d, 0x07, 0x3a, 0x05, 0xe2, 0xca, 0xfb, 0xe9, 0xfc, 0x01, 0xe0, 0x0a,
  0xdc, 0xbb, 0x51, 0xd0, 0x0e, 0x33, 0xe4, 0xe4, 0xfb, 0x17, 0xec, 0xcc,
  0x10, 0x0f, 0x0d, 0xd1, 0xea, 0x2a, 0x1d, 0xd0, 0x06, 0xde, 0xe4, 0xc1,
  0x2b, 0xec, 0x2c, 0x18, 0x03, 0xe3, 0xf5, 0x0d, 0x58, 0xeb, 0xde, 0xc2,
  0xca, 0x2b, 0x20, 0xfb, 0xe1, 0xfc, 0xd1, 0x0f, 0x27, 0xfe, 0x1c, 0xf4,
  0xc8, 0xd5, 0x2c, 0xe5, 0xf2, 0xde, 0x08, 0xfc, 0x11, 0xc9, 0xae, 0xc0,
  0xf2, 0xeb, 0x3b, 0x3d, 0xf6, 0x04, 0xd4, 0x07, 0xf7, 0x0c, 0xd2, 0xfa,
  0xa4, 0x20, 0xdd, 0xc1, 0xe6, 0xf5, 0xa1, 0xdd, 0x35, 0xd6, 0x02, 0x0d,
  0xdc, 0xdb, 0xd3, 0xcc, 0x33, 0x00, 0xe1, 0x31, 0xe7, 0x39, 0x33, 0xec,
  0xc0, 0x48, 0xf6, 0x26, 0xfa, 0x1d, 0x38, 0x11, 0x27, 0x24, 0x41, 0x09,
  0x16, 0xf7, 0xd8, 0xe0, 0xf3, 0xf9, 0xe3, 0x0e, 0x08, 0x14, 0x0a, 0xf3,
  0x04, 0xcd, 0x2c, 0xff, 0xe3, 0x09, 0xf2, 0xdf, 0xe6, 0x17, 0xf4, 0xfa,
  0xfb, 0x03, 0x29, 0x2e, 0x29, 0x3a, 0xf4, 0xe9, 0x15, 0x0b, 0xfa, 0xfc,
  0x05, 0x33, 0xca, 0xeb, 0x17, 0x15, 0x26, 0x26, 0xd5, 0xcd, 0x3a, 0xda,
  0xf4, 0xf2, 0x02, 0xbd, 0xe7, 0xe7, 0x2f, 0xef, 0x01, 0xf2, 0xea, 0x17,
  0xf0, 0xfe, 0x1e, 0xf2, 0x1d, 0x1c, 0x48, 0xf2, 0x09, 0x1a, 0xf1, 0xdd,
  0xf6, 0x0d, 0x2d, 0xea, 0xd2, 0xf6, 0x04, 0xb6, 0x30, 0x29, 0x21, 0xd1,
  0xf0, 0xe3, 0x03, 0xbc, 0x05, 0xde, 0x00, 0x1d, 0x30, 0x06, 0xf0, 0xd9,
  0xb0, 0x24, 0xec, 0xf3, 0x18, 0x29, 0xf3, 0xea, 0xf8, 0xf4, 0xcf, 0x36,
  0x22, 0x05, 0xcb, 0xe9, 0xe0, 0x07, 0x00, 0xcb, 0xdf, 0xf5, 0xf4, 0xe1,
  0xc5, 0x19, 0xd6, 0xff, 0xd6, 0xd3, 0xc0, 0xf9, 0xcd, 0xdd, 0x39, 0xe5,
  0xe1, 0x29, 0xda, 0x2d, 0x1d, 0xf6, 0x22, 0xd8, 0x22, 0x0f, 0xf5, 0x24,
  0xd8, 0xdb, 0xf2, 0xfa, 0xcc, 0xf7, 0xf6, 0xf1, 0xe0, 0x2e, 0x43, 0xd6,
  0xe3, 0xea, 0x0f, 0x35, 0x01, 0x14, 0x2a, 0x0a, 0x2b, 0xe7, 0x39, 0xde,
  0xc5, 0x03, 0x14, 0x09, 0xc7, 0x28, 0xe2, 0xcd, 0xe8, 0xd8, 0x16, 0x33,
  0xd7, 0xfd, 0x26, 0xf9, 0x2c, 0xcc, 0xfb, 0x06, 0x14, 0xd3, 0x0a, 0x39,
  0xfd, 0x12, 0x20, 0x05, 0x23, 0xfc, 0xe5, 0x30, 0x0b, 0x06, 0x13, 0x34,
  0x12, 0xec, 0x2e, 0xea, 0x0f, 0xd2, 0xcc, 0xfa, 0xd6, 0xf5, 0x1c, 0x2e,
  0xee, 0x10, 0xee, 0xf7, 0xfe, 0x2e, 0x29, 0x19, 0xe0, 0xe3, 0x17, 0xe8,
  0xf5, 0xe1, 0x14, 0xf7, 0x09, 0xda, 0xfd, 0x17, 0x15, 0x32, 0xf4, 0xe7,
  0xbd, 0xca, 0xf7, 0xd7, 0xf7, 0xc8, 0xc7, 0x00, 0xdc, 0x30, 0x11, 0x18,
  0x1c, 0x01, 0x06, 0xcf, 0x04, 0xe9, 0xfe, 0x34, 0xdd, 0xea, 0x15, 0x0f,
  0x04, 0xf5, 0xdf, 0x03, 0x05, 0xc6, 0xdb, 0x43, 0x14, 0x16, 0x06, 0x21,
  0xdd, 0x3b, 0x32, 0xff, 0xf8, 0xe9, 0x14, 0xec, 0xfe, 0xb4, 0xd2, 0xbe,
  0x35, 0xff, 0xe5, 0x08, 0xe4, 0xed, 0xfb, 0xf2, 0x3d, 0xe1, 0x19, 0xd2,
  0x09, 0xd8, 0x08, 0xe8, 0xcf, 0x29, 0x3d, 0xec, 0x1c, 0x15, 0xda, 0x1b,
  0x07, 0x1a, 0x04, 0x09, 0xcc, 0x26, 0xc7, 0x20, 0xec, 0xda, 0xd4, 0x13,
  0xf5, 0x16, 0xc0, 0x1c, 0xd0, 0x02, 0xe7, 0xd0, 0x2b, 0xe9, 0xda, 0x0c,
  0xfe, 0xb6, 0xfe, 0xc5, 0x03, 0x0a, 0x1c, 0x0a, 0x1d, 0x16, 0xc5, 0xc5,
  0x13, 0x05, 0x22, 0xca, 0xcc, 0x1f, 0x0f, 0x16, 0xe3, 0x08, 0xe9, 0xfa,
  0x08, 0xf3, 0x18, 0x30, 0xe6, 0x20, 0x37, 0x1c, 0xf3, 0x16, 0x2d, 0xf7,
  0xf5, 0xc8, 0x13, 0xe0, 0x51, 0xcb, 0x32, 0x19, 0xf2, 0xd1, 0xd7, 0x2b,
  0x24, 0x68, 0xfc, 0xe6, 0xc0, 0xbf, 0x67, 0x22, 0x11, 0x08, 0x0e, 0xd8,
  0x38, 0xf6, 0x1a, 0xfd, 0xd5, 0x07, 0x3b, 0x02, 0x01, 0x00, 0xac, 0x0b,
  0x03, 0xed, 0x34, 0x3a, 0xe0, 0xcf, 0x02, 0x0f, 0x04, 0x06, 0x37, 0x01,
  0xf8, 0xd2, 0x11, 0x07, 0x2f, 0x0d, 0xe6, 0x0e, 0xe3, 0x0e, 0x02, 0xf3,
  0x11, 0x25, 0x56, 0x16, 0x1d, 0x1c, 0xb5, 0x3c, 0xf9, 0xe6, 0xf1, 0xbd,
  0x0c, 0x3e, 0x12, 0xe7, 0x30, 0xf6, 0xe6, 0xdd, 0x18, 0xf0, 0x1e, 0xd0,
  0xa6, 0xfd, 0x1d, 0x36, 0x3e, 0x0f, 0xe1, 0x21, 0xec, 0xdd, 0x3a, 0xa7,
  0xfc, 0xe1, 0xd0, 0xce, 0x10, 0xdf, 0x32, 0xc5, 0xa4, 0xc1, 0x0b, 0xef,
  0xfe, 0xe4, 0x0f, 0xd2, 0xf4, 0xaf, 0x1a, 0xe1, 0x15, 0xc4, 0x2a, 0xd0,
  0x14, 0xc4, 0xf0, 0xef, 0xba, 0xe4, 0x15, 0xc6, 0x2f, 0xa5, 0xcb, 0x15,
  0x2e, 0x32, 0xee, 0xc3, 0xd1, 0x16, 0x1a, 0xef, 0xc1, 0xe1, 0x19, 0xef,
  0xf3, 0x18, 0x3f, 0xc5, 0xed, 0xcb, 0xe6, 0xfb, 0x44, 0x07, 0xf5, 0xed,
  0x38, 0x1e, 0x18, 0xff, 0x02, 0x28, 0x09, 0xd9, 0xd3, 0xe8, 0xf6, 0xd0,
  0xf2, 0xfa, 0xf3, 0xcc, 0xbf, 0xff, 0x23, 0xdf, 0x25, 0x07, 0xfd, 0x21,
  0x39, 0xdf, 0x1e, 0x03, 0x07, 0x00, 0x4c, 0xfb, 0xb7, 0xf7, 0x56, 0xef,
  0x4c, 0x10, 0x39, 0x1e, 0xff, 0x2c, 0x28, 0xf0, 0xdf, 0xf6, 0x02, 0x43,
  0xf5, 0x13, 0xf5, 0x02, 0x0c, 0xfc, 0x30, 0x04, 0xff, 0x0a, 0xe7, 0xe4,
  0x01, 0x02, 0xf0, 0xcb, 0x00, 0xf1, 0x2e, 0xc4, 0x6a, 0x2b, 0xc1, 0xc9,
  0xde, 0x0c, 0x39, 0x06, 0xdf, 0x46, 0x3d, 0x08, 0x2f, 0x01, 0x15, 0xfd,
  0x5d, 0x18, 0xfb, 0x1c, 0x24, 0x12, 0x2d, 0xdf, 0xfe, 0xfb, 0x02, 0x25,
  0x08, 0x4f, 0xf4, 0x34, 0xbe, 0xe7, 0x5b, 0x38, 0x1c, 0x1f, 0x36, 0xbd,
  0x1c, 0xdf, 0xdc, 0x0b, 0xb9, 0xe9, 0xfd, 0xed, 0x35, 0x35, 0xe9, 0xf2,
  0x1e, 0xc6, 0x2b, 0x0b, 0x45, 0xa9, 0xc0, 0xf4, 0x09, 0x2a, 0xfb, 0x12,
  0xde, 0x0f, 0x4c, 0x0d, 0xc3, 0xcb, 0xda, 0xf9, 0x12, 0x05, 0xdc, 0xcf,
  0xeb, 0xef, 0x02, 0x0b, 0xd1, 0xd0, 0xbc, 0x0e, 0xfd, 0x06, 0x15, 0x15,
  0xe9, 0x43, 0x12, 0xe6, 0xd2, 0xe1, 0xbb, 0xd1, 0x16, 0xe9, 0x19, 0xed,
  0xab, 0xcd, 0x3b, 0x21, 0xfd, 0x00, 0xcd, 0x10, 0x16, 0x31, 0xfe, 0xff,
  0x09, 0x38, 0x4b, 0xf6, 0x37, 0x07, 0xfb, 0xe9, 0x31, 0xf5, 0x05, 0x2a,
  0xed, 0x07, 0xee, 0xfd, 0x08, 0xc3, 0x34, 0xe0, 0x2f, 0xe6, 0x3e, 0x12,
  0x1d, 0xbf, 0xf1, 0x30, 0xee, 0x0b, 0x04, 0x1e, 0xf3, 0x2e, 0x3a, 0xdd,
  0xd7, 0x0b, 0xf8, 0x00, 0xf4, 0x20, 0x19, 0x3d, 0x29, 0x14, 0x24, 0xd1,
  0xed, 0xdd, 0xd7, 0x12, 0xbe, 0x2d, 0xf5, 0x1c, 0x20, 0x10, 0x2e, 0xf1,
  0x41, 0x3d, 0xf8, 0x1d, 0x23, 0xe3, 0x1d, 0xfa, 0xfd, 0xf0, 0xff, 0xf1,
  0xff, 0xde, 0x0e, 0xf7, 0x2c, 0x38, 0xf3, 0xe4, 0x07, 0x03, 0xf8, 0xee,
  0xdd, 0xe5, 0x27, 0x0b, 0xe1, 0x17, 0x0c, 0xdb, 0xff, 0xcd, 0x26, 0xcc,
  0x06, 0x06, 0xd9, 0xfa, 0xea, 0x1a, 0x16, 0x08, 0xf5, 0x14, 0xc2, 0xdb,
  0xec, 0xf3, 0x13, 0x3c, 0x17, 0xee, 0x09, 0xe5, 0xe9, 0xeb, 0xdc, 0xd7,
  0xf6, 0xf5, 0x33, 0x11, 0x21, 0x4a, 0x0e, 0x1c, 0xe0, 0xc9, 0xdc, 0xf7,
  0xf1, 0xa9, 0xcc, 0xa9, 0xfd, 0x0d, 0xe6, 0x24, 0xb5, 0xe1, 0xd8, 0xe0,
  0xdd, 0xe4, 0xd8, 0xdd, 0xc6, 0x18, 0x01, 0x0e, 0x00, 0x0d, 0x3c, 0xef,
  0x0a, 0xba, 0x08, 0x2f, 0x1d, 0xd5, 0x10, 0x3c, 0x28, 0xda, 0x08, 0x30,
  0x38, 0xfc, 0xd2, 0xe9, 0xc8, 0xf5, 0xf4, 0x0a, 0xf3, 0xfb, 0xf8, 0xc2,
  0x2f, 0xc1, 0xd7, 0xd6, 0xd6, 0x07, 0xdd, 0xcd, 0xfe, 0xed, 0xa0, 0xe7,
  0x0b, 0xda, 0xfe, 0x17, 0xfb, 0x10, 0xf0, 0xd7, 0xe1, 0xea, 0x9a, 0x42,
  0x20, 0xfb, 0xf3, 0x2b, 0xc7, 0x16, 0x38, 0x00, 0xaf, 0xb1, 0xc9, 0x16,
  0x18, 0xe0, 0x31, 0xd5, 0xbf, 0xb0, 0x25, 0xf0, 0xd1, 0xeb, 0xcd, 0x0e,
  0x56, 0x08, 0xaf, 0x25, 0xd9, 0xf0, 0xf4, 0xd0, 0xe0, 0x33, 0xdc, 0xde,
  0x57, 0xfa, 0xf5, 0x3a, 0xf2, 0xe0, 0xeb, 0xeb, 0xea, 0x31, 0x04, 0x0b,
  0xe3, 0x23, 0xf1, 0xfb, 0x19, 0x26, 0xf4, 0x20, 0xe3, 0x29, 0xfc, 0x0c,
  0xd9, 0x3d, 0xab, 0x43, 0xd6, 0x0d, 0x9a, 0x42, 0xed, 0x1b, 0x1f, 0xef,
  0xdc, 0xe1, 0xbe, 0xeb, 0x3f, 0xda, 0x12, 0x1a, 0xce, 0xfc, 0xbe, 0x26,
  0xe9, 0x72, 0xc9, 0x02, 0xed, 0x07, 0xf7, 0x52, 0xf0, 0xf8, 0x30, 0xf6,
  0xea, 0x3a, 0xfe, 0xc9, 0x16, 0x01, 0x33, 0x3e, 0xe3, 0x26, 0x08, 0x01,
  0x5a, 0x37, 0xca, 0xf7, 0x21, 0x18, 0x21, 0xdb, 0x0f, 0x23, 0xbf, 0x0d,
  0xf1, 0x00, 0xc2, 0x01, 0x09, 0xba, 0x06, 0x42, 0x02, 0x22, 0x12, 0xd3,
  0xa6, 0x5c, 0xf5, 0xe7, 0x3e, 0xee, 0xe1, 0x11, 0x27, 0x34, 0xe6, 0xe1,
  0xff, 0xc7, 0x0c, 0xec, 0x0b, 0x25, 0xb9, 0x05, 0xff, 0xf2, 0xed, 0x4a,
  0x0a, 0x29, 0xe2, 0xf0, 0x05, 0xf5, 0x15, 0x0b, 0xd8, 0x15, 0xdd, 0xd4,
  0x0c, 0x0a, 0xfc, 0x13, 0xef, 0xd3, 0x1f, 0xdf, 0xd6, 0xf7, 0xfa, 0xf4,
  0x24, 0x2f, 0xda, 0xb8, 0xf0, 0xc6, 0x2f, 0x39, 0xef, 0xf3, 0x03, 0x0a,
  0x04, 0xf9, 0xfb, 0x0d, 0x05, 0xe5, 0x0e, 0xf0, 0x15, 0xbb, 0x0a, 0xbf,
  0x22, 0xec, 0xf1, 0xfe, 0x0f, 0xd8, 0xdf, 0x1e, 0x02, 0x10, 0x10, 0xca,
  0x01, 0xf8, 0xdc, 0x02, 0x1a, 0xf7, 0x0e, 0x04, 0xd3, 0xc6, 0x03, 0xfc,
  0x4d, 0xcf, 0x0b, 0x17, 0xad, 0x1e, 0xcd, 0xc7, 0x04, 0xf9, 0xcf, 0xfa,
  0x15, 0x3e, 0xf7, 0x06, 0x13, 0x34, 0x0f, 0xd4, 0xad, 0xe1, 0x2a, 0x0b,
  0x1d, 0xd4, 0xef, 0xf6, 0xd8, 0xeb, 0x2d, 0x1d, 0xf5, 0xe1, 0x10, 0x11,
  0x72, 0x0d, 0xeb, 0xdf, 0xdf, 0xd0, 0x22, 0xeb, 0xd1, 0x03, 0xc2, 0x03,
  0x22, 0x1d, 0x01, 0xe7, 0xe4, 0xf3, 0x1a, 0x10, 0x63, 0xee, 0xbf, 0xf5,
  0xaf, 0xe7, 0x12, 0x33, 0xbd, 0x21, 0x3b, 0x1b, 0xf6, 0xf6, 0x00, 0xed,
  0x1b, 0xe7, 0x2b, 0x07, 0x08, 0xc6, 0xdb, 0xe9, 0xd3, 0xe4, 0xca, 0x04,
  0xf6, 0xe1, 0x33, 0x0a, 0xf8, 0x10, 0x0a, 0xe1, 0xe7, 0x10, 0xd7, 0xe4,
  0xff, 0xb2, 0xed, 0xeb, 0xe3, 0x13, 0x04, 0xd0, 0x06, 0x25, 0xab, 0xf0,
  0x2b, 0xec, 0xff, 0x06, 0xeb, 0x0e, 0xdf, 0x2d, 0x13, 0x06, 0xec, 0xc6,
  0x19, 0x03, 0xd0, 0xf3, 0x35, 0xfd, 0x30, 0x0d, 0xe2, 0x30, 0x2e, 0xaa,
  0x11, 0xe7, 0x17, 0x1a, 0xe1, 0xdb, 0x22, 0xfd, 0x25, 0xe7, 0xd6, 0xf6,
  0xe2, 0x0a, 0x25, 0xf1, 0x02, 0xe6, 0x18, 0xcf, 0xf3, 0x2f, 0xab, 0x0b,
  0x0b, 0xd7, 0xea, 0xf0, 0x28, 0xb6, 0x31, 0xe4, 0x24, 0x31, 0x1e, 0xa3,
  0xf2, 0xc8, 0x25, 0x14, 0xb0, 0xfd, 0xff, 0xff, 0xe6, 0xfd, 0xff, 0xff,
  0x04, 0x00, 0x00, 0x00, 0xc8, 0x00, 0x00, 0x00, 0x7d, 0x0b, 0x00, 0x00,
  0xbd, 0x0e, 0x00, 0x00, 0x84, 0xfa, 0xff, 0xff, 0x90, 0x14, 0x00, 0x00,
  0xf7, 0x0e, 0x00, 0x00, 0x7a, 0xfe, 0xff, 0xff, 0xb6, 0xfd, 0xff, 0xff,
  0xae, 0x04, 0x00, 0x00, 0xd9, 0xff, 0xff, 0xff, 0x0b, 0xfb, 0xff, 0xff,
  0x31, 0x02, 0x00, 0x00, 0x83, 0x05, 0x00, 0x00, 0x81, 0x05, 0x00, 0x00,
  0x5c, 0x04, 0x00, 0x00, 0x50, 0xfd, 0xff, 0xff, 0x22, 0xff, 0xff, 0xff,
  0x37, 0xfd, 0xff, 0xff, 0x51, 0x07, 0x00, 0x00, 0x54, 0x09, 0x00, 0x00,
  0x26, 0xf9, 0xff, 0xff, 0xd6, 0x05, 0x00, 0x00, 0x52, 0x02, 0x00, 0x00,
  0x66, 0x0c, 0x00, 0x00, 0x9b, 0x06, 0x00, 0x00, 0xdb, 0x07, 0x00, 0x00,
  0x35, 0x04, 0x00, 0x00, 0x29, 0x0a, 0x00, 0x00, 0x68, 0xfd, 0xff, 0xff,
  0xe9, 0x06, 0x00, 0x00, 0x2b, 0x05, 0x00, 0x00, 0x14, 0x05, 0x00, 0x00,
  0x3d, 0x10, 0x00, 0x00, 0x2f, 0x12, 0x00, 0x00, 0xcf, 0xfe, 0xff, 0xff,
  0x40, 0x01, 0x00, 0x00, 0xdc, 0x03, 0x00, 0x00, 0xa9, 0x05, 0x00, 0x00,
  0x5e, 0xfe, 0xff, 0xff, 0x9e, 0xf6, 0xff, 0xff, 0x82, 0xf7, 0xff, 0xff,
  0x1c, 0x09, 0x00, 0x00, 0x0b, 0xff, 0xff, 0xff, 0xaf, 0x17, 0x00, 0x00,
  0xb8, 0xff, 0xff, 0xff, 0xf9, 0x03, 0x00, 0x00, 0xb5, 0xfe, 0xff, 0xff,
  0x46, 0x05, 0x00, 0x00, 0x10, 0xf6, 0xff, 0xff, 0xb9, 0x0f, 0x00, 0x00,
  0x8a, 0xfa, 0xff, 0xff, 0xba, 0xfe, 0xff, 0xff, 0x04, 0x00, 0x00, 0x00,
  0x3c, 0x00, 0x00, 0x00, 0x9e, 0x06, 0x00, 0x00, 0xda, 0x05, 0x00, 0x00,
  0xa8, 0x01, 0x00, 0x00, 0x4c, 0xff, 0xff, 0xff, 0xca, 0x0b, 0x00, 0x00,
  0xfc, 0x05, 0x00, 0x00, 0xab, 0xfc, 0xff, 0xff, 0x05, 0xfe, 0xff, 0xff,
  0x50, 0x07, 0x00, 0x00, 0xc3, 0xfd, 0xff, 0xff, 0x1d, 0xfd, 0xff, 0xff,
  0x6e, 0x01, 0x00, 0x00, 0x63, 0x09, 0x00, 0x00, 0x11, 0x02, 0x00, 0x00,
  0x00, 0x00, 0x00, 0x00, 0x02, 0xff, 0xff, 0xff, 0x04, 0x00, 0x00, 0x00,
  0x3c, 0x00, 0x00, 0x00, 0xd5, 0x81, 0x35, 0x25, 0x43, 0xf2, 0x53, 0x12,
  0xab, 0xc4, 0xc4, 0xdc, 0x21, 0xd0, 0xf3, 0xc5, 0xf8, 0x31, 0x46, 0xe9,
  0x27, 0xcc, 0xa5, 0x23, 0x10, 0xd4, 0x1e, 0x92, 0xfa, 0x0c, 0x2d, 0x38,
  0xca, 0x1e, 0x39, 0xad, 0xe9, 0xc8, 0x26, 0xa5, 0x91, 0xf2, 0x65, 0xe5,
  0xbd, 0x32, 0x2e, 0xd2, 0xe5, 0x81, 0x08, 0x14, 0x26, 0xe7, 0xfc, 0x36,
  0xf5, 0x40, 0x12, 0x15, 0x4a, 0xff, 0xff, 0xff, 0x04, 0x00, 0x00, 0x00,
  0x10, 0x00, 0x00, 0x00, 0x67, 0xfd, 0xff, 0xff, 0x63, 0x01, 0x00, 0x00,
  0x09, 0x01, 0x00, 0x00, 0x69, 0xfa, 0xff, 0xff, 0x34, 0xff, 0xff, 0xff,
  0x0f, 0x00, 0x00, 0x00, 0x54, 0x4f, 0x43, 0x4f, 0x20, 0x43, 0x6f, 0x6e,
  0x76, 0x65, 0x72, 0x74, 0x65, 0x64, 0x2e, 0x00, 0x01, 0x00, 0x00, 0x00,
  0x04, 0x00, 0x00, 0x00, 0x00, 0xf9, 0xff, 0xff, 0x94, 0x01, 0x00, 0x00,
  0x88, 0x01, 0x00, 0x00, 0x7c, 0x01, 0x00, 0x00, 0x04, 0x00, 0x00, 0x00,
  0x06, 0x00, 0x00, 0x00, 0x50, 0x01, 0x00, 0x00, 0x04, 0x01, 0x00, 0x00,
  0xbc, 0x00, 0x00, 0x00, 0x74, 0x00, 0x00, 0x00, 0x38, 0x00, 0x00, 0x00,
  0x04, 0x00, 0x00, 0x00, 0xd2, 0xfe, 0xff, 0xff, 0x03, 0x00, 0x00, 0x00,
  0x10, 0x00, 0x00, 0x00, 0x04, 0x00, 0x00, 0x00, 0x01, 0x00, 0x00, 0x00,
  0x0c, 0x00, 0x00, 0x00, 0x01, 0x00, 0x00, 0x00, 0x00, 0x00, 0x00, 0x00,
  0x00, 0x00, 0x0e, 0x00, 0x1a, 0x00, 0x08, 0x00, 0x0c, 0x00, 0x10, 0x00,
  0x07, 0x00, 0x14, 0x00, 0x0e, 0x00, 0x00, 0x00, 0x00, 0x00, 0x00, 0x09,
  0x01, 0x00, 0x00, 0x00, 0x24, 0x00, 0x00, 0x00, 0x18, 0x00, 0x00, 0x00,
  0x0c, 0x00, 0x00, 0x00, 0x00, 0x00, 0x06, 0x00, 0x08, 0x00, 0x04, 0x00,
  0x06, 0x00, 0x00, 0x00, 0x00, 0x00, 0x80, 0x3f, 0x01, 0x00, 0x00, 0x00,
  0x00, 0x00, 0x00, 0x00, 0x01, 0x00, 0x00, 0x00, 0x08, 0x00, 0x00, 0x00,
  0xca, 0xff, 0xff, 0xff, 0x00, 0x00, 0x00, 0x08, 0x1c, 0x00, 0x00, 0x00,
  0x10, 0x00, 0x00, 0x00, 0x08, 0x00, 0x00, 0x00, 0x04, 0x00, 0x04, 0x00,
  0x04, 0x00, 0x00, 0x00, 0x01, 0x00, 0x00, 0x00, 0x08, 0x00, 0x00, 0x00,
  0x03, 0x00, 0x00, 0x00, 0x07, 0x00, 0x00, 0x00, 0x09, 0x00, 0x00, 0x00,
  0x0a, 0x00, 0x00, 0x00, 0x00, 0x00, 0x0e, 0x00, 0x14, 0x00, 0x00, 0x00,
  0x08, 0x00, 0x0c, 0x00, 0x07, 0x00, 0x10, 0x00, 0x0e, 0x00, 0x00, 0x00,
  0x00, 0x00, 0x00, 0x08, 0x1c, 0x00, 0x00, 0x00, 0x10, 0x00, 0x00, 0x00,
  0x04, 0x00, 0x00, 0x00, 0xba, 0xff, 0xff, 0xff, 0x00, 0x00, 0x00, 0x01,
  0x01, 0x00, 0x00, 0x00, 0x07, 0x00, 0x00, 0x00, 0x03, 0x00, 0x00, 0x00,
  0x04, 0x00, 0x00, 0x00, 0x05, 0x00, 0x00, 0x00, 0x06, 0x00, 0x00, 0x00,
  0x00, 0x00, 0x0e, 0x00, 0x16, 0x00, 0x00, 0x00, 0x08, 0x00, 0x0c, 0x00,
  0x07, 0x00, 0x10, 0x00, 0x0e, 0x00, 0x00, 0x00, 0x00, 0x00, 0x00, 0x08,
  0x24, 0x00, 0x00, 0x00, 0x18, 0x00, 0x00, 0x00, 0x0c, 0x00, 0x00, 0x00,
  0x00, 0x00, 0x06, 0x00, 0x08, 0x00, 0x07, 0x00, 0x06, 0x00, 0x00, 0x00,
  0x00, 0x00, 0x00, 0x01, 0x01, 0x00, 0x00, 0x00, 0x04, 0x00, 0x00, 0x00,
  0x03, 0x00, 0x00, 0x00, 0x01, 0x00, 0x00, 0x00, 0x02, 0x00, 0x00, 0x00,
  0x03, 0x00, 0x00, 0x00, 0x00, 0x00, 0x0a, 0x00, 0x10, 0x00, 0x04, 0x00,
  0x08, 0x00, 0x0c, 0x00, 0x0a, 0x00, 0x00, 0x00, 0x02, 0x00, 0x00, 0x00,
  0x10, 0x00, 0x00, 0x00, 0x04, 0x00, 0x00, 0x00, 0x01, 0x00, 0x00, 0x00,
  0x01, 0x00, 0x00, 0x00, 0x01, 0x00, 0x00, 0x00, 0x0b, 0x00, 0x00, 0x00,
  0x01, 0x00, 0x00, 0x00, 0x0c, 0x00, 0x00, 0x00, 0x01, 0x00, 0x00, 0x00,
  0x0b, 0x00, 0x00, 0x00, 0x0d, 0x00, 0x00, 0x00, 0xe4, 0x05, 0x00, 0x00,
  0x48, 0x05, 0x00, 0x00, 0xa8, 0x04, 0x00, 0x00, 0x34, 0x04, 0x00, 0x00,
  0xb0, 0x03, 0x00, 0x00, 0x0c, 0x03, 0x00, 0x00, 0x98, 0x02, 0x00, 0x00,
  0x14, 0x02, 0x00, 0x00, 0x88, 0x01, 0x00, 0x00, 0xe4, 0x00, 0x00, 0x00,
  0x70, 0x00, 0x00, 0x00, 0x3c, 0x00, 0x00, 0x00, 0x04, 0x00, 0x00, 0x00,
  0xd8, 0xff, 0xff, 0xff, 0x18, 0x00, 0x00, 0x00, 0x04, 0x00, 0x00, 0x00,
  0x08, 0x00, 0x00, 0x00, 0x49, 0x64, 0x65, 0x6e, 0x74, 0x69, 0x74, 0x79,
  0x00, 0x00, 0x00, 0x00, 0x02, 0x00, 0x00, 0x00, 0x01, 0x00, 0x00, 0x00,
  0x04, 0x00, 0x00, 0x00, 0x0c, 0x00, 0x0c, 0x00, 0x04, 0x00, 0x00, 0x00,
  0x00, 0x00, 0x08, 0x00, 0x0c, 0x00, 0x00, 0x00, 0x20, 0x00, 0x00, 0x00,
  0x04, 0x00, 0x00, 0x00, 0x13, 0x00, 0x00, 0x00, 0x64, 0x65, 0x6e, 0x73,
  0x65, 0x5f, 0x44, 0x65, 0x6e, 0x73, 0x65, 0x31, 0x30, 0x5f, 0x69, 0x6e,
  0x70, 0x75, 0x74, 0x00, 0x02, 0x00, 0x00, 0x00, 0x01, 0x00, 0x00, 0x00,
  0x78, 0x00, 0x00, 0x00, 0xc2, 0xfa, 0xff, 0xff, 0x00, 0x00, 0x00, 0x02,
  0x60, 0x00, 0x00, 0x00, 0x01, 0x00, 0x00, 0x00, 0x2c, 0x00, 0x00, 0x00,
  0x04, 0x00, 0x00, 0x00, 0xb4, 0xfa, 0xff, 0xff, 0x18, 0x00, 0x00, 0x00,
  0x04, 0x00, 0x00, 0x00, 0x01, 0x00, 0x00, 0x00, 0x00, 0x00, 0x00, 0x00,
  0x00, 0x00, 0x00, 0x00, 0x00, 0x00, 0x00, 0x00, 0x01, 0x00, 0x00, 0x00,
  0xea, 0xe7, 0x4f, 0x39, 0x26, 0x00, 0x00, 0x00, 0x73, 0x65, 0x71, 0x75,
  0x65, 0x6e, 0x74, 0x69, 0x61, 0x6c, 0x5f, 0x34, 0x2f, 0x64, 0x65, 0x6e,
  0x73, 0x65, 0x5f, 0x44, 0x65, 0x6e, 0x73, 0x65, 0x31, 0x32, 0x2f, 0x4d,
  0x61, 0x74, 0x4d, 0x75, 0x6c, 0x5f, 0x62, 0x69, 0x61, 0x73, 0x00, 0x00,
  0x01, 0x00, 0x00, 0x00, 0x04, 0x00, 0x00, 0x00, 0x32, 0xfb, 0xff, 0xff,
  0x00, 0x00, 0x00, 0x09, 0x8c, 0x00, 0x00, 0x00, 0x02, 0x00, 0x00, 0x00,
  0x44, 0x00, 0x00, 0x00, 0x04, 0x00, 0x00, 0x00, 0xbc, 0xfb, 0xff, 0xff,
  0x30, 0x00, 0x00, 0x00, 0x24, 0x00, 0x00, 0x00, 0x18, 0x00, 0x00, 0x00,
  0x04, 0x00, 0x00, 0x00, 0x01, 0x00, 0x00, 0x00, 0x00, 0x00, 0x00, 0x00,
  0x00, 0x00, 0x00, 0x00, 0x00, 0x00, 0x00, 0x00, 0x01, 0x00, 0x00, 0x00,
  0xdc, 0x5c, 0xfe, 0x3b, 0x01, 0x00, 0x00, 0x00, 0xc3, 0xa4, 0x48, 0x3f,
  0x01, 0x00, 0x00, 0x00, 0x22, 0x60, 0x7c, 0xbf, 0x3a, 0x00, 0x00, 0x00,
  0x73, 0x65, 0x71, 0x75, 0x65, 0x6e, 0x74, 0x69, 0x61, 0x6c, 0x5f, 0x34,
  0x2f, 0x64, 0x65, 0x6e, 0x73, 0x65, 0x5f, 0x44, 0x65, 0x6e, 0x73, 0x65,
  0x31, 0x32, 0x2f, 0x4d, 0x61, 0x74, 0x4d, 0x75, 0x6c, 0x2f, 0x52, 0x65,
  0x61, 0x64, 0x56, 0x61, 0x72, 0x69, 0x61, 0x62, 0x6c, 0x65, 0x4f, 0x70,
  0x2f, 0x74, 0x72, 0x61, 0x6e, 0x73, 0x70, 0x6f, 0x73, 0x65, 0x00, 0x00,
  0x02, 0x00, 0x00, 0x00, 0x04, 0x00, 0x00, 0x00, 0x0f, 0x00, 0x00, 0x00,
  0xd2, 0xfb, 0xff, 0xff, 0x00, 0x00, 0x00, 0x09, 0x74, 0x00, 0x00, 0x00,
  0x0b, 0x00, 0x00, 0x00, 0x44, 0x00, 0x00, 0x00, 0x04, 0x00, 0x00, 0x00,
  0x5c, 0xfc, 0xff, 0xff, 0x30, 0x00, 0x00, 0x00, 0x24, 0x00, 0x00, 0x00,
  0x18, 0x00, 0x00, 0x00, 0x04, 0x00, 0x00, 0x00, 0x01, 0x00, 0x00, 0x00,
  0x36, 0x00, 0x00, 0x00, 0x00, 0x00, 0x00, 0x00, 0x00, 0x00, 0x00, 0x00,
  0x01, 0x00, 0x00, 0x00, 0x2b, 0x3b, 0x63, 0x3d, 0x01, 0x00, 0x00, 0x00,
  0x3f, 0x11, 0x82, 0x40, 0x01, 0x00, 0x00, 0x00, 0x51, 0x4f, 0x21, 0xc1,
  0x22, 0x00, 0x00, 0x00, 0x73, 0x65, 0x71, 0x75, 0x65, 0x6e, 0x74, 0x69,
  0x61, 0x6c, 0x5f, 0x34, 0x2f, 0x64, 0x65, 0x6e, 0x73, 0x65, 0x5f, 0x44,
  0x65, 0x6e, 0x73, 0x65, 0x31, 0x32, 0x2f, 0x42, 0x69, 0x61, 0x73, 0x41,
  0x64, 0x64, 0x00, 0x00, 0x02, 0x00, 0x00, 0x00, 0x01, 0x00, 0x00, 0x00,
  0x04, 0x00, 0x00, 0x00, 0x5a, 0xfc, 0xff, 0xff, 0x00, 0x00, 0x00, 0x09,
  0x6c, 0x00, 0x00, 0x00, 0x09, 0x00, 0x00, 0x00, 0x40, 0x00, 0x00, 0x00,
  0x04, 0x00, 0x00, 0x00, 0xe4, 0xfc, 0xff, 0xff, 0x2c, 0x00, 0x00, 0x00,
  0x20, 0x00, 0x00, 0x00, 0x14, 0x00, 0x00, 0x00, 0x04, 0x00, 0x00, 0x00,
  0x01, 0x00, 0x00, 0x00, 0x80, 0xff, 0xff, 0xff, 0xff, 0xff, 0xff, 0xff,
  0x01, 0x00, 0x00, 0x00, 0x81, 0x3e, 0xd1, 0x3c, 0x01, 0x00, 0x00, 0x00,
  0x42, 0x6d, 0xd0, 0x40, 0x01, 0x00, 0x00, 0x00, 0x00, 0x00, 0x00, 0x00,
  0x1f, 0x00, 0x00, 0x00, 0x73, 0x65, 0x71, 0x75, 0x65, 0x6e, 0x74, 0x69,
  0x61, 0x6c, 0x5f, 0x34, 0x2f, 0x64, 0x65, 0x6e, 0x73, 0x65, 0x5f, 0x44,
  0x65, 0x6e, 0x73, 0x65, 0x31, 0x31, 0x2f, 0x52, 0x65, 0x6c, 0x75, 0x00,
  0x02, 0x00, 0x00, 0x00, 0x01, 0x00, 0x00, 0x00, 0x0f, 0x00, 0x00, 0x00,
  0xda, 0xfc, 0xff, 0xff, 0x00, 0x00, 0x00, 0x02, 0x60, 0x00, 0x00, 0x00,
  0x03, 0x00, 0x00, 0x00, 0x2c, 0x00, 0x00, 0x00, 0x04, 0x00, 0x00, 0x00,
  0xcc, 0xfc, 0xff, 0xff, 0x18, 0x00, 0x00, 0x00, 0x04, 0x00, 0x00, 0x00,
  0x01, 0x00, 0x00, 0x00, 0x00, 0x00, 0x00, 0x00, 0x00, 0x00, 0x00, 0x00,
  0x00, 0x00, 0x00, 0x00, 0x01, 0x00, 0x00, 0x00, 0x81, 0x2b, 0x7a, 0x38,
  0x26, 0x00, 0x00, 0x00, 0x73, 0x65, 0x71, 0x75, 0x65, 0x6e, 0x74, 0x69,
  0x61, 0x6c, 0x5f, 0x34, 0x2f, 0x64, 0x65, 0x6e, 0x73, 0x65, 0x5f, 0x44,
  0x65, 0x6e, 0x73, 0x65, 0x31, 0x31, 0x2f, 0x4d, 0x61, 0x74, 0x4d, 0x75,
  0x6c, 0x5f, 0x62, 0x69, 0x61, 0x73, 0x00, 0x00, 0x01, 0x00, 0x00, 0x00,
  0x0f, 0x00, 0x00, 0x00, 0x4a, 0xfd, 0xff, 0xff, 0x00, 0x00, 0x00, 0x09,
  0x8c, 0x00, 0x00, 0x00, 0x0a, 0x00, 0x00, 0x00, 0x44, 0x00, 0x00, 0x00,
  0x04, 0x00, 0x00, 0x00, 0xd4, 0xfd, 0xff, 0xff, 0x30, 0x00, 0x00, 0x00,
  0x24, 0x00, 0x00, 0x00, 0x18, 0x00, 0x00, 0x00, 0x04, 0x00, 0x00, 0x00,
  0x01, 0x00, 0x00, 0x00, 0x00, 0x00, 0x00, 0x00, 0x00, 0x00, 0x00, 0x00,
  0x00, 0x00, 0x00, 0x00, 0x01, 0x00, 0x00, 0x00, 0xbb, 0xed, 0x90, 0x3b,
  0x01, 0x00, 0x00, 0x00, 0xe0, 0xcb, 0x0f, 0x3f, 0x01, 0x00, 0x00, 0x00,
  0xff, 0x79, 0xeb, 0xbe, 0x3a, 0x00, 0x00, 0x00, 0x73, 0x65, 0x71, 0x75,
  0x65, 0x6e, 0x74, 0x69, 0x61, 0x6c, 0x5f, 0x34, 0x2f, 0x64, 0x65, 0x6e,
  0x73, 0x65, 0x5f, 0x44, 0x65, 0x6e, 0x73, 0x65, 0x31, 0x31, 0x2f, 0x4d,
  0x61, 0x74, 0x4d, 0x75, 0x6c, 0x2f, 0x52, 0x65, 0x61, 0x64, 0x56, 0x61,
  0x72, 0x69, 0x61, 0x62, 0x6c, 0x65, 0x4f, 0x70, 0x2f, 0x74, 0x72, 0x61,
  0x6e, 0x73, 0x70, 0x6f, 0x73, 0x65, 0x00, 0x00, 0x02, 0x00, 0x00, 0x00,
  0x0f, 0x00, 0x00, 0x00, 0x32, 0x00, 0x00, 0x00, 0xea, 0xfd, 0xff, 0xff,
  0x00, 0x00, 0x00, 0x09, 0x6c, 0x00, 0x00, 0x00, 0x07, 0x00, 0x00, 0x00,
  0x40, 0x00, 0x00, 0x00, 0x04, 0x00, 0x00, 0x00, 0x74, 0xfe, 0xff, 0xff,
  0x2c, 0x00, 0x00, 0x00, 0x20, 0x00, 0x00, 0x00, 0x14, 0x00, 0x00, 0x00,
  0x04, 0x00, 0x00, 0x00, 0x01, 0x00, 0x00, 0x00, 0x80, 0xff, 0xff, 0xff,
  0xff, 0xff, 0xff, 0xff, 0x01, 0x00, 0x00, 0x00, 0xcb, 0xf2, 0x5c, 0x3c,
  0x01, 0x00, 0x00, 0x00, 0xd8, 0x15, 0x5c, 0x40, 0x01, 0x00, 0x00, 0x00,
  0x00, 0x00, 0x00, 0x00, 0x1f, 0x00, 0x00, 0x00, 0x73, 0x65, 0x71, 0x75,
  0x65, 0x6e, 0x74, 0x69, 0x61, 0x6c, 0x5f, 0x34, 0x2f, 0x64, 0x65, 0x6e,
  0x73, 0x65, 0x5f, 0x44, 0x65, 0x6e, 0x73, 0x65, 0x31, 0x30, 0x2f, 0x52,
  0x65, 0x6c, 0x75, 0x00, 0x02, 0x00, 0x00, 0x00, 0x01, 0x00, 0x00, 0x00,
  0x32, 0x00, 0x00, 0x00, 0x6a, 0xfe, 0xff, 0xff, 0x00, 0x00, 0x00, 0x02,
  0x60, 0x00, 0x00, 0x00, 0x04, 0x00, 0x00, 0x00, 0x2c, 0x00, 0x00, 0x00,
  0x04, 0x00, 0x00, 0x00, 0x5c, 0xfe, 0xff, 0xff, 0x18, 0x00, 0x00, 0x00,
  0x04, 0x00, 0x00, 0x00, 0x01, 0x00, 0x00, 0x00, 0x00, 0x00, 0x00, 0x00,
  0x00, 0x00, 0x00, 0x00, 0x00, 0x00, 0x00, 0x00, 0x01, 0x00, 0x00, 0x00,
  0x60, 0x31, 0xbe, 0x37, 0x26, 0x00, 0x00, 0x00, 0x73, 0x65, 0x71, 0x75,
  0x65, 0x6e, 0x74, 0x69, 0x61, 0x6c, 0x5f, 0x34, 0x2f, 0x64, 0x65, 0x6e,
  0x73, 0x65, 0x5f, 0x44, 0x65, 0x6e, 0x73, 0x65, 0x31, 0x30, 0x2f, 0x4d,
  0x61, 0x74, 0x4d, 0x75, 0x6c, 0x5f, 0x62, 0x69, 0x61, 0x73, 0x00, 0x00,
  0x01, 0x00, 0x00, 0x00, 0x32, 0x00, 0x00, 0x00, 0xda, 0xfe, 0xff, 0xff,
  0x00, 0x00, 0x00, 0x09, 0x88, 0x00, 0x00, 0x00, 0x06, 0x00, 0x00, 0x00,
  0x40, 0x00, 0x00, 0x00, 0x04, 0x00, 0x00, 0x00, 0x64, 0xff, 0xff, 0xff,
  0x2c, 0x00, 0x00, 0x00, 0x20, 0x00, 0x00, 0x00, 0x14, 0x00, 0x00, 0x00,
  0x04, 0x00, 0x00, 0x00, 0x01, 0x00, 0x00, 0x00, 0x00, 0x00, 0x00, 0x00,
  0x00, 0x00, 0x00, 0x00, 0x01, 0x00, 0x00, 0x00, 0x1b, 0x79, 0x3d, 0x3b,
  0x01, 0x00, 0x00, 0x00, 0xb1, 0x42, 0xbb, 0x3e, 0x01, 0x00, 0x00, 0x00,
  0x29, 0xfe, 0xbb, 0xbe, 0x3a, 0x00, 0x00, 0x00, 0x73, 0x65, 0x71, 0x75,
  0x65, 0x6e, 0x74, 0x69, 0x61, 0x6c, 0x5f, 0x34, 0x2f, 0x64, 0x65, 0x6e,
  0x73, 0x65, 0x5f, 0x44, 0x65, 0x6e, 0x73, 0x65, 0x31, 0x30, 0x2f, 0x4d,
  0x61, 0x74, 0x4d, 0x75, 0x6c, 0x2f, 0x52, 0x65, 0x61, 0x64, 0x56, 0x61,
  0x72, 0x69, 0x61, 0x62, 0x6c, 0x65, 0x4f, 0x70, 0x2f, 0x74, 0x72, 0x61,
  0x6e, 0x73, 0x70, 0x6f, 0x73, 0x65, 0x00, 0x00, 0x02, 0x00, 0x00, 0x00,
  0x32, 0x00, 0x00, 0x00, 0x78, 0x00, 0x00, 0x00, 0x76, 0xff, 0xff, 0xff,
  0x00, 0x00, 0x00, 0x09, 0x74, 0x00, 0x00, 0x00, 0x05, 0x00, 0x00, 0x00,
  0x4c, 0x00, 0x00, 0x00, 0x10, 0x00, 0x00, 0x00, 0x0c, 0x00, 0x14, 0x00,
  0x04, 0x00, 0x08, 0x00, 0x0c, 0x00, 0x10, 0x00, 0x0c, 0x00, 0x00, 0x00,
  0x2c, 0x00, 0x00, 0x00, 0x20, 0x00, 0x00, 0x00, 0x14, 0x00, 0x00, 0x00,
  0x04, 0x00, 0x00, 0x00, 0x01, 0x00, 0x00, 0x00, 0x00, 0x00, 0x00, 0x00,
  0x00, 0x00, 0x00, 0x00, 0x01, 0x00, 0x00, 0x00, 0x7c, 0x7c, 0x00, 0x3c,
  0x01, 0x00, 0x00, 0x00, 0x00, 0xf8, 0x7f, 0x3f, 0x01, 0x00, 0x00, 0x00,
  0x00, 0xf8, 0x7f, 0xbf, 0x18, 0x00, 0x00, 0x00, 0x64, 0x65, 0x6e, 0x73,
  0x65, 0x5f, 0x44, 0x65, 0x6e, 0x73, 0x65, 0x31, 0x30, 0x5f, 0x69, 0x6e,
  0x70, 0x75, 0x74, 0x5f, 0x69, 0x6e, 0x74, 0x38, 0x00, 0x00, 0x00, 0x00,
  0x02, 0x00, 0x00, 0x00, 0x01, 0x00, 0x00, 0x00, 0x78, 0x00, 0x00, 0x00,
  0x00, 0x00, 0x0e, 0x00, 0x18, 0x00, 0x08, 0x00, 0x07, 0x00, 0x0c, 0x00,
  0x10, 0x00, 0x14, 0x00, 0x0e, 0x00, 0x00, 0x00, 0x00, 0x00, 0x00, 0x09,
  0x54, 0x00, 0x00, 0x00, 0x08, 0x00, 0x00, 0x00, 0x38, 0x00, 0x00, 0x00,
  0x10, 0x00, 0x00, 0x00, 0x0c, 0x00, 0x0c, 0x00, 0x00, 0x00, 0x00, 0x00,
  0x04, 0x00, 0x08, 0x00, 0x0c, 0x00, 0x00, 0x00, 0x18, 0x00, 0x00, 0x00,
  0x04, 0x00, 0x00, 0x00, 0x01, 0x00, 0x00, 0x00, 0x80, 0xff, 0xff, 0xff,
  0xff, 0xff, 0xff, 0xff, 0x00, 0x00, 0x00, 0x00, 0x01, 0x00, 0x00, 0x00,
  0x00, 0x00, 0x80, 0x3b, 0x0d, 0x00, 0x00, 0x00, 0x49, 0x64, 0x65, 0x6e,
  0x74, 0x69, 0x74, 0x79, 0x5f, 0x69, 0x6e, 0x74, 0x38, 0x00, 0x00, 0x00,
  0x02, 0x00, 0x00, 0x00, 0x01, 0x00, 0x00, 0x00, 0x04, 0x00, 0x00, 0x00,
  0x04, 0x00, 0x00, 0x00, 0x4c, 0x00, 0x00, 0x00, 0x30, 0x00, 0x00, 0x00,
  0x1c, 0x00, 0x00, 0x00, 0x04, 0x00, 0x00, 0x00, 0xe6, 0xff, 0xff, 0xff,
  0x00, 0x00, 0x00, 0x06, 0x02, 0x00, 0x00, 0x00, 0x00, 0x00, 0x06, 0x00,
  0x06, 0x00, 0x05, 0x00, 0x06, 0x00, 0x00, 0x00, 0x00, 0x72, 0x0a, 0x00,
  0x0e, 0x00, 0x07, 0x00, 0x00, 0x00, 0x08, 0x00, 0x0a, 0x00, 0x00, 0x00,
  0x00, 0x00, 0x00, 0x19, 0x02, 0x00, 0x00, 0x00, 0x00, 0x00, 0x0a, 0x00,
  0x0c, 0x00, 0x07, 0x00, 0x00, 0x00, 0x08, 0x00, 0x0a, 0x00, 0x00, 0x00,
  0x00, 0x00, 0x00, 0x09, 0x04, 0x00, 0x00, 0x00

};